node {
  name: "NCHW_output/perm"
  op: "Const"
  attr {
    key: "dtype"
    value {
      type: DT_INT32
    }
  }
  attr {
    key: "value"
    value {
      tensor {
        dtype: DT_INT32
        tensor_shape {
          dim {
            size: 4
          }
        }
        tensor_content: "\000\000\000\000\003\000\000\000\001\000\000\000\002\000\000\000"
      }
    }
  }
}
node {
  name: "mul_13/y"
  op: "Const"
  attr {
    key: "dtype"
    value {
      type: DT_FLOAT
    }
  }
  attr {
    key: "value"
    value {
      tensor {
        dtype: DT_FLOAT
        tensor_shape {
        }
        float_val: 0.5
      }
    }
  }
}
node {
  name: "alpha7"
  op: "Const"
  attr {
    key: "dtype"
    value {
      type: DT_FLOAT
    }
  }
  attr {
    key: "value"
    value {
      tensor {
        dtype: DT_FLOAT
        tensor_shape {
          dim {
            size: 56
          }
        }
        tensor_content: "\nWm\272R\327\324:\374T\374\271\240Z\001\2743\245\020\274\235\252/<\356Ez:\364\205\267>\300Tt?x\036\010<\327l@>\026\357q\274\\\005.\274x\314\272<\222\242\030:L6\235\272-\206\204>\271+\014<\367\007\357\273\352\201\371\2734\263\336>w\241\271\272tYn:|\377\255:\236\331\024;r\372\000\274)\274\341\272\303\000\340\273\000\010\221\273\200m\0279_\334\307\273\342D\016\272\210pX\272E@\304\272\217\257\032\274\034Z\305\272\316\253I;\271\340w;\027\007\326<Q\207\231\273\256\254\201\274\215\352\030\275$$\213;t\304\234\273\343 &\274\325\006n<\317>\205;c\022\207\274(\230\262?@E\243:\347\334\001;\277\244\256;\003\000S\273\336\0009\273?\242\236\273`\376\r;"
      }
    }
  }
}
node {
  name: "mul_11/y"
  op: "Const"
  attr {
    key: "dtype"
    value {
      type: DT_FLOAT
    }
  }
  attr {
    key: "value"
    value {
      tensor {
        dtype: DT_FLOAT
        tensor_shape {
        }
        float_val: 0.5
      }
    }
  }
}
node {
  name: "alpha6"
  op: "Const"
  attr {
    key: "dtype"
    value {
      type: DT_FLOAT
    }
  }
  attr {
    key: "value"
    value {
      tensor {
        dtype: DT_FLOAT
        tensor_shape {
          dim {
            size: 12
          }
        }
        tensor_content: "\331z\'>\330\243\200?\315cV>\251l1=\311\240>\275(\326u\274\261\202 ?/\314\331>\347\211\202>\377$\354>\022r{:\024\206\210="
      }
    }
  }
}
node {
  name: "mul_9/y"
  op: "Const"
  attr {
    key: "dtype"
    value {
      type: DT_FLOAT
    }
  }
  attr {
    key: "value"
    value {
      tensor {
        dtype: DT_FLOAT
        tensor_shape {
        }
        float_val: 0.5
      }
    }
  }
}
node {
  name: "alpha5"
  op: "Const"
  attr {
    key: "dtype"
    value {
      type: DT_FLOAT
    }
  }
  attr {
    key: "value"
    value {
      tensor {
        dtype: DT_FLOAT
        tensor_shape {
          dim {
            size: 12
          }
        }
        tensor_content: "\025)\024>\0001\231\273V\265z\273\"y\027?o8~?[W\264;\227\027\237\274\013\207\000>\264H\r<\267\212\215<\016\275\325>\251C\005="
      }
    }
  }
}
node {
  name: "mul_7/y"
  op: "Const"
  attr {
    key: "dtype"
    value {
      type: DT_FLOAT
    }
  }
  attr {
    key: "value"
    value {
      tensor {
        dtype: DT_FLOAT
        tensor_shape {
        }
        float_val: 0.5
      }
    }
  }
}
node {
  name: "alpha4"
  op: "Const"
  attr {
    key: "dtype"
    value {
      type: DT_FLOAT
    }
  }
  attr {
    key: "value"
    value {
      tensor {
        dtype: DT_FLOAT
        tensor_shape {
          dim {
            size: 12
          }
        }
        tensor_content: "\227\033\205>\027j\232=e\220b=\006\350,>\242\330&>\311\353\000>-cv\2756\212V=\242Bq?\2357\244\275\332\267A>\377\317\270>"
      }
    }
  }
}
node {
  name: "mul_5/y"
  op: "Const"
  attr {
    key: "dtype"
    value {
      type: DT_FLOAT
    }
  }
  attr {
    key: "value"
    value {
      tensor {
        dtype: DT_FLOAT
        tensor_shape {
        }
        float_val: 0.5
      }
    }
  }
}
node {
  name: "alpha3"
  op: "Const"
  attr {
    key: "dtype"
    value {
      type: DT_FLOAT
    }
  }
  attr {
    key: "value"
    value {
      tensor {
        dtype: DT_FLOAT
        tensor_shape {
          dim {
            size: 12
          }
        }
        tensor_content: "\344M\201?hbe<\205\r8>\352\025\022?`\215\316>\276\247n\276\367\211\277\276&\253Y\275\006P\334<\307\312\210>}\256\371\276\272\3418\276"
      }
    }
  }
}
node {
  name: "mul_3/y"
  op: "Const"
  attr {
    key: "dtype"
    value {
      type: DT_FLOAT
    }
  }
  attr {
    key: "value"
    value {
      tensor {
        dtype: DT_FLOAT
        tensor_shape {
        }
        float_val: 0.5
      }
    }
  }
}
node {
  name: "alpha2"
  op: "Const"
  attr {
    key: "dtype"
    value {
      type: DT_FLOAT
    }
  }
  attr {
    key: "value"
    value {
      tensor {
        dtype: DT_FLOAT
        tensor_shape {
          dim {
            size: 12
          }
        }
        tensor_content: "\307\322c\272\246\016M?\240\215$>L\345\234:+\356\213?v\333\251>\320\207K?)\205\025<\272\212\'?@\375\004?\247\2259?/M4;"
      }
    }
  }
}
node {
  name: "mul_1/y"
  op: "Const"
  attr {
    key: "dtype"
    value {
      type: DT_FLOAT
    }
  }
  attr {
    key: "value"
    value {
      tensor {
        dtype: DT_FLOAT
        tensor_shape {
        }
        float_val: 0.5
      }
    }
  }
}
node {
  name: "alpha1"
  op: "Const"
  attr {
    key: "dtype"
    value {
      type: DT_FLOAT
    }
  }
  attr {
    key: "value"
    value {
      tensor {
        dtype: DT_FLOAT
        tensor_shape {
          dim {
            size: 56
          }
        }
        tensor_content: "\264_\307;\330\027j\277\210Na;6\'\230\272JEx;J\3630:\341\177\010;\354\203\324:+Z7\2745C!\273\220|=8x\260)\270\252\024\3429\243\300\323\276\010*\206?L\000\n\275*<\300=\376f\271<S\311\224?\302\301+?\224\237\033<\002\253D?\265(9?\324\006G;\004\'9;\270\262c\272=\257/?\366\230\306;.\305\233<i\267\200?\177=\261<\210>\314?/\325\n\273V\333\215:g\247\363\272\\\223\244\273\036O\226;\255V\302:\201\007\024\2755\002\027\272\2775G;\035\303\375:\221\177\213\274\207[\227\274.\377\221=\206\205\361\272jWo\273\330m\251\273DA3;\246yI\272\272\264L\273\230\274\367\271\'KL\275\033\2400\275n\350\277\275\\\217\237?"
      }
    }
  }
}
node {
  name: "b6"
  op: "Const"
  attr {
    key: "dtype"
    value {
      type: DT_FLOAT
    }
  }
  attr {
    key: "value"
    value {
      tensor {
        dtype: DT_FLOAT
        tensor_shape {
          dim {
            size: 12
          }
        }
        tensor_content: "|!\234\276I\261i>\351K\302\275\323\324N\276\243\374\356\276J\273X\277)U\341\275\271\233B\275\267j\264\275\242Mg\276e\263e\277\273\264\240\276"
      }
    }
  }
}
node {
  name: "f6"
  op: "Const"
  attr {
    key: "dtype"
    value {
      type: DT_FLOAT
    }
  }
  attr {
    key: "value"
    value {
      tensor {
        dtype: DT_FLOAT
        tensor_shape {
          dim {
            size: 3
          }
          dim {
            size: 3
          }
          dim {
            size: 12
          }
          dim {
            size: 12
          }
        }
        tensor_content: "\212|d\2760Nw\275\234\263\312=\202B\304\2750\007\271;\211\366&>F\220\257=+\316\211<\006?\375\273\304\227\256\275\014j\243>IFA\275\245B\322=\217\277\237=\215\334\033\276\307\313\276\275\232\006I>lrY\275[\320 \276}\027\200\275\306\026\305\275V\230\212;\330\246J\275}\265\260\275\244\261\356\275\245\345B<\373\006^;\227NE>>\250\204\276\274z,>\000\315\300\273\364\275\225<S\206:=\314[0=\231\016\217=\375\231\336\275\313\325y>2Q\010\276\237\236\206>c\250\303;\317\177\304\276\031\225\347\273\345\013\223>h\035\353=*(\274<\310\333W\275\001\223\021=\217\214]>z\222D\275O\236\320=l\227M\276\364i>=\273\301\341=lu\n\274\204\251W\276B,\232\275f\326\252;b\242u=11\004\276\177\316K\275M\201l>\236A\226<o\370\205\273\000GI\275\210\327\334=f>\006=\021\037\252\273\263|\207<\271\257A\2755\211\017=\020\225P=\234\225\326\275\244.z\274\373\273\202<\005\216\034\275\362\363\355<\233\002\241\276\020\242\212=\337%\245\274{\006\241\273*\223\031=\177M\273<\366\346\216\275;\001\234=\027\221\217\275/\370\232\274i\324\037=\266\240 \276B\316\313=\254@\t\273\365\370\247=#3\205<\3638E>\nN\332=\317\231\020=\262j\215>\025m\233=\035A\314;c\370\274\273\302u\315<\266\343K\276\321y\267\276\301-\363\274k\235\301\274x\321\003\275\311\360_\276\221#\032\276\006\007\274\276\271\212{\276\323Ad=.\030\033\276\233[\212\276\352\242\324>\202\000r\273J\2233\276\343\316\261\274\336\333Z\275M\006\226=\272\332\304=\345c\010\276\264R\257\276\261U\321\273\t\"F\275H\026\337<&\277N>\204\002\n>\226\t\332<e\217i;%\201,=\034\361\006=\357Z\354=\373w\344\275\361\025\207\275I\360\242<j\312\206\275X\010\322\275\306\213[>\366\321\254=\021G=\275j\037\325\274\265b\020\275|/\002\274\026}\222\272\221D\315\276\364\254f\276;#<\274\316\377V\276\t\342W\275\343\217\216>\016p\233\275\2755\t\275I>\361\275n\"\267=\002)\327=\030\363\212=\374\026J>.\256\310=.\264\230=7\311\005>\303\261\266=\332\275\212>\006\363\202\275\247?\016\275jn\024>j\314\334\275k\000\332=\2779{\274{\261a\275\013\237\210\276\021\344\221<>\016\017\275\243\274\313\274\330K\236\276\254\352\361=\327\347=\275\013R\222\2740\0077\2732,\036\2768\004(\276\007[\240\276\346\252\311>\010\261\023\276\220\260\211\276\242\3651>\024+\304\276\301W\374\273v\025\375=;m\247\276\237\312\"=\004\2518\276\215\355f\276\2671h\2762\346S\276\036(R>s\243\000\274\312\300(=;\367\220>\023m.=\360\206\237\276\2209\'>\210\313\020;B\301\033>,\316\221:$.\032=_\317\177> \214\027\275\370yj=/n\207\275B\311\304\275\3641\206=X\212\234=\r\275\223\274\336\001)\275\311\037\321\2752\217=\273m\372\311\275P\014\207=z\345\314\275\006\232y>\027\017\202\2763\002\027\2764b\222<}\373G>\322Vn=}\335V\275\\&X\2763]\267<\335\"\300=C\342:>C\037\257<7\266d\275\227\216E>\001%\220\276V\360\373<L<\272\274sz\255\275\023\233$>\266\237\265=\221\260\313=\320\211C>4j\371\275\255Z\227=k;+\276\027\334\360\273\377p\217\276wk}\276\021ti\276\231\211\305\275\336\010I\276\'\014%\276\320\202\203\276\343=\215\275C\037/>\356\241\225=\365=\343=|X\377\275\307\331\'>nT\260=\224\220\213\275l\343#>\241h\224\275\364\313\236=\310*\377=4\360\352\275\365\037\272\2766\206#\275Fy\342=IN\315=\205\300\232\276,M\236=8Up=\316\010\247=\273\003\026\276\227\245\241=\n9\237\276\304\302\275\275\317\235\221\275\371\3065<\320$\002>\266PY\275\355g\341<\000[\344\274\354\202\220\274q\214\205=\271\221\220\276X(\263;C\203%\276\261\317p\276\340t\033>\3779\314<m\356\006>\005B:>B\275\253>e\221\205=\377\027F<n\016\016>j\262\375<\177\213O>\003\204\330=\272\333\n>x9$>\254\345]:\262\005i=\212\\\222=\310\277x>\350\264 >X\024\227=TE\350<\376s+>a3\335=p\2101>x\001h\276\331C\203\275\233\367^<\273\317\335<\036~\230\275r\262V=%\267\004=\332\246\365\274\013W@<\366G\231\275\0232\226\275\243F\326\275Z\2022<\357N\025\276\"\2417\274:$\221\274\250\342p\276\337\303g\276\177\376_=2\251\273<\023wT\275\275\264c=\362\226\002\276\313\033m\275\2308\006>KE\215\276\310K\340=\261S\200>\2754\210\274?~\266=\241\252|=E\346\242\275en\206>X\273\007;\230\272\231=i\036R>pU\000=\242*\026>\310\036\251\274\274\374\255\275\3425_\276\235\323\006>(\270\234\274\360\310\355<5\357\241\275\241L\n=\021\313\030\275[\247\323\273M\036{\2769\307\035>5;\272\275\314\262l\276\360\236Z>\233\255\r>\376V\301;P?\303=n;O\276\254\320>=\361\320\373=K\236r>u\324\250>0s\037<o]\033=\215<b=\010\033\267=\303\026\370\276\021\021\343\275\340\264k\274\275\014\303=i\243\023>\031\301\030\276QY\n\277\024v\203>\216\340\210\275\226@\204=\255\275?>@\373\222\276\371\216a<\344\213\371\275\013\021f\275\324\267\341=j\205{<k\301\377\275\035\207\234<\344\333\270={\030\005\2769\251\037;\344U\213=1d\337\274O`\'>&b\301=u`\t\275\2403\022=\267\225@\275\364\343R=(\033\261:\226\"\360\273|\026\320\275\357\3173\275`\342\235\275e\tL\275U\277&=fL\024>`<\013=\336\351\352\275k\227o\275\330l\251\273\263\361m=\307\374\246<\300I$<\2209\336\274QX\335\275\\BA\276\371j\200\274{\217\311\276\344\260\0038\241\027\273\275!?0\275\307>\261\275Fv\300\277\205;\234=\373\307\357\275\t\002~\275Y\374\360\2753\243T\276\323H\030\276\214\254\231>\'\2419\274\017\252+>\252\360N\275]\220_\275\270\275\026\275\npn\276H_\254>\374\220\234=Dr\211=|\022e=\267\363\207\273\322{\002\276\322N\206<\321.)\276\024Q\210=9\206\271=x\271\264=\006\251\023\275\205H\205>F\257\246\275z\027\007>\233s\366<\2065\245\276\225\376k\275Y\245&>\2367\263=\215\251i\276r\225x\276\243\256\265>\304G\214\274\250\010\034\276\\\263\324\275\236\363\204\276e\225@=4Qg\276\267b$\275\327t\322\275c\031\246>\230\272\036\276\327\262\305\274\002o\277\276\226~\024?C}\037>\036\271>>\265\014\253<tL1>\361\207\350=\333\315\021\276\260 \006\276gr\246\276\301B\257=H6\003>\233B\017>\221.)\276Fm\013>]\204\210=\032\273\347\275O\373+\275^\305\360=H\215\317\272\356\363\323\275R\363V\275(.\237<\307\356W=\361E->\230\345v>7n\342\275#\246\256<\006\222\3639Nn\301\275\253\r\204\276K\344\220<a\315b\275\204*\256\275\307v<\275I\323%\276\024:\327\275\360zj\276\361\245\204\2766\360\016\275!\310?=\234\253\276\275\301\016\216>\272\004v>\3443\224=>mz=\037\373\001=u\321\010>\\\356\214<\375\020\304>`j\375=\356\033\335\274\264\375\241<2\316N=Sv$>\016\2308=\355\rF=kc\337;-\350\234<\326-2\274\350\252m<\204\321\031\276\202qe>\233\026\241=\326j(>\\\307\027\275\374v\205\276v0f=\010L\371\274\234I%\276i\237F\275n\001\330\274U3\270=\014x\221\275\300\t\022>\304d\322=\273^Y\276\007\214V<\007,\220\276\236tV>\273\257}\276}U\020\276H\221M>\214r\003<\023\343m=\267\347t\276P\347\362:\002\177\212= \327\254\275\332\025\240\275%\347\211>\331\305\372\275\222\240\367\275\355Z%\276\214n(>\306\211x<OJ\336=\333!5\276\332\246\312\275\316\334\032<eD\260=L\303\025>\003yA\2755?\313;\245\216\203\276i\372\216\276\327\226c\276v^N\276z\356K\276\300\010\275\276\333\235\363=\035\344R=\212\000Q<\030a\252>b\036\367=\221hC\275`\270`>\037\303\033>y!)>\031>\221=\233U\266\2751n\363<\253\341\024\276s\372\337\275\241x\203\276\034\023\200\276\343\374\300\276U8\264\276x\262S\275\037\003\274\276\'\253_\276\346V\341\276\356O6\276\254)c\276\351\3157\276\313\010i\274Y\215l=\304I\'<w\026\014?\3055\022\275)q\020\277\255\306\277\275?\021\337<\304\262\361>\330k\234>\'U\233\276\370\270F>\303U\320>\223\361\177;\247\n!>&Y]\276\246/#\276Z\227\342<bc\232\275\217\270\335=\331{}\273=\370\252<&j\234=\305?\326<\006\247\004=\335\026`=d\"D=\372\200G\275\303\306\031\276m\037\363\275\342E\231>\216\242\205\275_\373\035=\270\317C\275\314\205\335=L\237r\276g\264\230\275\357\017\211\276#\213`\276}\245\274\275P\357\323\275{}\020\276\217\270\201>O\312(\276\0139\237\276\020\024\333\276!\312%\277\332x^\276\313\255\337\273{\t\340=,\363\007>\r\374\007=\241\372\204>\305A\253=3\364\202\275\311\177\304\275j\263\277=\221\210\376=xk\007\276\300I->&\277_=\013\250\220=i\307\264\276FN0=\032\005\276\276\250.\273:\300\336a\276\274\276\272\275\033-\005\275gU\001>~\246\330<2\nk\276.\204\220=\352\325*\275\236\232\204\276\177b\322\275\230\2112\276_Fr>\366#\254:i{\273<\031\206\201\276\024\025\332\276\370\355\206\276\351B=\275 i\255\267C\3528>,_\327>H<\027\277\213\205\223\276\023m5\274\301J\245>Ni\301=\341c\243\276\250\205\221\276\301\372\001?>3\026\274\005\260\325=\\\303\357\275\020\226;>qlp\276\035\312\230\276\225\322\232\275fjL> 1%=\002\242\207<*\026\273\275\004\004x\276\3627\342\274\213\361\222=E\377\345\273\210mC>\371<!\276x4\017\276b*R=\325\214\344=\217\340J\275\205S\363;\333\244,\275(\273q=\271\024!=\225\351\327\273\0205@\275\374E\313\274\342\376<>ev\215>t5\360=\022]n\273\237\235M>\310\350C>\304\221\216>\371\273\201\276\321m\234>\210\000\231<-\362z\274\265\336\035=\031\271&=\034\377\037\276\353\354\034\274\341`\203<-\351\352\275pK\331\274FD\312\276\355\013I\275\224f\000\277\026\252\261=U\232\214>\343\251\304\275\261\270\233>\014\201\030>\203\232\000\276,P\233>A\264Q>\252\362\002;\376z\204>U\343\361\275\312%\214=\217\271[>\2470\002\275\250\002\'\276\177Z\203\276\"H\225=\335\322^>H\307\241>R\333f=\214qk\276\276\036\204\276\334\373\250>\001r\357=l6N\2758\377\231=\221\206\344\274y\003\353;\360\315\266=I\023\235\275d\306$\275&\314e\275\271c\203=_\371\t>\214\372\027\276\352\354M\2769,\304\275\363\017G>B\377\341=\007\230\262<\213\262\334\274\227\000\230\276\t\347\326\275\313\326 \276^;J\273 n\301=\216\302\251>\362e\227\276\254\237\325<\334\317$\276z\010M\276\257\243\374\273\377A\307=\326~\335<5(\232\275\375\207\177\276+\255b\276\266\203\256;\267G\000\276\363@\332<2\016\217=I\035\002\276\303\226\363\276\317w =\300ni\275\300\321$><\370\270=\362b\000>\207\033\277\275\372\243\031\275\026\311\225\275\375xW\276`\007\362;\304<*\276\303`\243\276\366t\210\276\274\216\350\275\346\215|=\034\0025\275$\276\242\273\201\312\342\274\370\266\216\275.Z\253=G\001b\275\250\373\311\275\315\273\013\274\223\253\267=\002v_\274\267\345}\276h\303\275\275\353{\017\276\275@\031>\241`6\274\217\367\316\276-\214\234\275\373\325\315\275\341\030J<\216\2146>\202\353\207\276\234s\231\276\3568Q\276\257^\333\275\345\364J=\263\255\353=\325\233\325\275\315B\031\274\355\217\010>\232\300~=\021\315%\274W\224\355\273\241e\036\275\230+\010\276d\336\365<\376\234}\275\345!\301\274/\241\234<g\214\026\276ib\002=\247\241\224\276I\236#\275\257q\337;\250\026m=\321\260a=\261\227\024\275<;\203=\322\231W=\247\344\300\271\251\330Y\275\300%\312=\345\341O<\322S\t>(n\365=\231pU\275x\337&\276\317\211\330=\203\006C>i\277\364=\'.\231<f\372`>\306\025\377=\2300\374=\205d\356\274\232\355\210>\030\3204>\313\242\226<\251\202}<\300\220\230\274\307\371\365\274\362\314\002\276\235mI=\304\235:\275\271kq\275W>\253<n\254\003>\006\357\261=\256\030*\275\343:\261=\311\307%>\203\340\216=\366n_=\325\353\343\274V]Y=\267UE\2761\222\370\274\021\021M=\036\351\242=V\277:\276\3078\270\2751\200b=\366\354\021>\222\204H\275_`>\275\354\024H\276\246\227T=\013/%\276\326xi<v\177\243<\255\313\327=\312\013S>\005\255,>\'\356x<\351\267\206\274\273\037j\275\002+\203\275\366$M<\010\230d\275\246\260\032\275\361Q\350\275\324\2103\276\0064O\275\242I\024\276S`\323\275#\213\221\274\311\260\346<;6C<\003\035e>e\207<=R\322\"=\215\006q=h:\026>6\230\022>\365\336\360=\212!\225>E\302\233\275\014\237\274\274\236\311\230\272\262O%\276K\034\375=\0203(><\007\005<)\303\266=-c\221=\030\014\227=\336FQ\276=r\017:\036\240K<\205=K<\266p$\275\001\346K>1\217\305\276%\0041\276\244C\375\274\240\344\327\273\222\2322\276\022\366\014\2762\022\023=\327Q\005\276\347\357\202\276d\246\313=[&X>\nR:\275\310\036\201=-40\273\005\321\251;&\331~\276\014\272\177\275c\362\212\275\361\377\024>YR\355\276)\236a\276\226:\353<=)F>G\234;\276\003\376D>\303>^>\267\210{=\230\374w\275\372\240I=UA\022>\241\262\265\275\321\343\247\276UY\207=\271\265!<]\367M=s\276\352\274U\210\235\276\360\356\246\276\350\231\261\275\213\331\001\276\376kn\275\005\345\034\276b\317\377\275\321Xg=\274tl\276\250\226q\273N-\327\275<\344h\275\372\023\002>\305\316g>\001\260\230=\\B\307=\266\375\003\272@\365\361<p\353w=\240\013\003>.\3513>s\333\265\275322>\271O\247=^\355$<\207\000\252\275o\344\246\276q\376\272\275}Tq=\031\266\277\275\363\013\302\274\257\032T\276v\377\023\275`\024\032>n3J>\345\365\334>\022\'\021>\335\215\024\276?R\034>\333\353\214\276?\272>\275\302\272\013>u\320\330=6\354\265\276}\344\214=G\305@>\022\310\244\273d\362T\275[k\300\275r\t\333=#\253\204>A\004\025\276\343\275!\276\374]\302\275\270\031\204=,Z\006\276\277g\375;1;\324=9\357\017\276\220\357^>\245\326\177\276\271\230j\276Y\027\010>0C\377\274\204\322\363\274\306\236\000\275\306\346\026>\225\270\310=)\356\243=\3639\201<t\013\365\274\327\276\257\276\363#a\275\314g9\276\016\312\376\274[\312\275\274\"y\202\275l\265\257\275x\324\344\275\304\227\335=\224\242\227\275\225B\177\274R\363\247\273\2228\216=\203\372\345=\332\333\001>\261mc\274l\230\214<\253\364?=\357\364\340=\037\361&>\330\341\263\275\216\032\361\275?g\207\2731\315\017=t\005\026\276m\274\230=\t\367v=\315\325a<\n\361\331\274fU \275\340\3375>\027\225\244\274\357L\324\273\364\027\332\275\231@4\275J#\227\275\203\300\342\276\260\177\332\274\207[(\277\301\237\336\275\227Q\205=U\244\276=\340\364\216\276\"\033\205\277 \236\370\276\223\016v\275\365\376\204=.\031\236\276I\347\007\276\312o,\276Q\310\266>\r\034R>\342\206W>\244\271D\276\207]1\276Y\334\320=\300<:=C\356\222\275)~\271=\006\021\033\275K\306\370\275y\306Y<TS\021>\35587>\257d\222\275\337l6\276`\027r=4*H>\273\363\236=K,0\276\377\020\033=\2059\010\276\310\005*\275\017\036\016\276W\210\020=Bf\346<\234b\354;U\220\345\275-!\235\276\224/\002\276\001R[=Z\275\331\275\001\217@\275\266\021\201=\301\255)>\330\237\203\274\357p|>SO\300\275\224l/\2755\337\313\273\216\306\007=\265\005\261=\366\345\034\276\021\036\371=Z+\236< \014\277\273\301\242\216<B-\247=\220\245\021\277\374\230\006<\266L\224<\365\261#=\344\345\333<h\345\320\275\364\331R\274\343-\313=\'V\037>\267\302\200\276\332NH\2777\353\316\275\014\310\267>\006\257\231>_\201\372=%\361\360\275\023\r\006\276\323\273\t\276\\\352\234<\363^\344=|S\320=\310\306>\2764o|\276Y\322r\275\356\205\323=\003yD>\202\003\222=\236\351y\275\260\261\355\275\277\255\226\275\032UD=a\234\303\275\336\2240=r\023\n\275}\024\204\275\224\265\333\274Ie\027>\'\341\366<p\216\224=r:\n>\026\010\025\276\277\214\030=[\034\243\274\341\016\000=\357\233\205<\310\247?< \313h\275@\321\3148\244T\331\276\330\341\351;\000\003\234\274\027r*<\244\222\241\274\"\007\027\276\r5\372=\311*\345<\263\221\030\274,\014\377<\273\241\005\275\376\354\217\274\036\202\257\274/\223\t\275 jE<\3759\034\275\215nB=\361\304\205<+\033\356;@\t\013=\006\025n;\2653\235<VO\262\275\374F\344=\211\366\222>M%\216=b&X=\214h\226=\030:)>\360aG\275\010p2=\310y\023\276\367\276P\275.\t.=i\357\330\275\212|\376\2752R\223\276^;2\276\232]\327\275\200K.\276UqR\276\210\266;\275\242\030\324=(5\346\275\343\264O\275\234.\270=PD\210=CPX>a\215\316=\353\352\262\275+\017\030\275\311i\343<\335\271\034>}\236.>\314\004\202\276z\244\200\274\n\357\035=z\030\355\275\326\302w\276Fhs=y\026\355=\004\334\260=\001\376\302<\235\211\037=\351Y1\275%\321\263\274\313?7\276"
      }
    }
  }
}
node {
  name: "b5"
  op: "Const"
  attr {
    key: "dtype"
    value {
      type: DT_FLOAT
    }
  }
  attr {
    key: "value"
    value {
      tensor {
        dtype: DT_FLOAT
        tensor_shape {
          dim {
            size: 12
          }
        }
        tensor_content: "\313\244O\276Q@\014?\317\311\350\276p\036R\276?\204\244=\223\343\033\277\334\230\010\277\235 <=/-\004\276\371\252*\277sg`\276\205&\013\277"
      }
    }
  }
}
node {
  name: "f5"
  op: "Const"
  attr {
    key: "dtype"
    value {
      type: DT_FLOAT
    }
  }
  attr {
    key: "value"
    value {
      tensor {
        dtype: DT_FLOAT
        tensor_shape {
          dim {
            size: 3
          }
          dim {
            size: 3
          }
          dim {
            size: 12
          }
          dim {
            size: 12
          }
        }
        tensor_content: "J\250\241=\270\321\214\275\306\030r\275u[\333<D\372\343=n\010\274\275yj\374\275\010\205o>\305\327f\276\3242 >\212\376\204\275+\'a>f[\325\276\" M\276$Ke>0\215A>nB\376=\331G|=\\a\235\276{\031L>\243\2720\276\201\244\002?\371t\272=2\036\306> \035\202=n\221{=\035i&\276\247\340\000>\301\236$>\200\030\026\276\360\305\360\275J\347\235\275\031\207\376\274\257-\317>\307\274\320\2759\323\225\277\350:u>\271\350\204>Q{z<\363\240\365<\372\345(>/\367\253>\373\241+>\0163\372>\375\'\023=\231\010\221\276\n\312\221\275]\006[\276\003\250\033\274\3213\n\276Q\347\300\275\326\204\023=\324Z\355\272\352.\032>2\265\013\276\010\264\247\275)\203\376\275\211\026\014>\26345>\346R\203\275\265[E>\300\305,?\226\211\031>.8<\276\023\351\203\275\274`\217\275Z\\/>\316\366\215>O\010\313>)\205,\277\262/\007\277\346 v>\210*\360\274\036Y`\276\370\274\354=\260\365\0078\217\324\017\275\342s\332\276\201\257\'\276\nd\313\2740\335\310\273yd)=~5/>u\037\225=Mg|=\240N\336\276(\324\220\276G~}=R\317\233<:\025\350\275H\214\254\275\241\346\341>\000\363w\276\274\374\313>\207\177\263>\273l\260>DM\300=\242\3252>u\315\241=\255\226X\275\274\2315\275\223\267\214\275\341\267r=\333\262\026=1\001\244\275\272\251N=\347\302\t\276\210\344S>\240\254==}?P>\022\021B>\233\257J\274\023!\342=a>\355=\305\005%\275\324\244t>\207\241>>\177\203\302\276\216\225\326;\n\263g\276\204`\314=|V\317=\305\006\032>\006\356a>*\202\232>\001%\003\276\323!|>\224X0>U\205\020=D\214\354\276\367\255.\276\206\346v>\237:l\276X\346\323<Y?\213\276|\"1\276Yn\320\276\274\352\364\274\023\244\327\274\203\273V\275c\'\213<\362\244\211\276\327\007X=\271\340\333\276\247\311\206>`\352\025>P\206\214=\203\217S=\340\244\245=Ud\274\273r9\303>\233\312\223>\320X\343>o\204:\276\034_5\276}\322\343\273z=X\276\007\372\227\276\325\226(>\321\203;>\034d.>x\227\327\276*\330\n\275X\277\266\275\224\233\242>o\207\t\276\236I3=\022^Z>\220cd\276\035,\200>\361\346\333\276@Es=k&r\276}\274\352\274?\304&\277\205D\027\277\231\244j>V\223\n>\025W\001=%\177\210\277/z\275=\001\322\242>\306\312X>`\2622=\'\240\314\275%z\204\274\275V\344\275\341\313\272<\367c\203\276\252E\251\2761O\237\276l\351\353>zE\341=\\\301\265\275\245a\n\276\306\261%\275.v\223=e\253\220>r\3621\276\3521=\276\031\000\317\275\360\231&\276\\\017q=x\034\002>=\305\023>\007\300b>\306\024\001=\337\\B>\304\177\035\276\220\334\224\276!oz>\211\222\020>1\270\030>3\315\277>\007& >\330C\373>\2420\372=@\032\331\276\326\250\031=S\205!<xj\360=4\257\317\274G\276\021\275d\036\333\275Ka0\275\231~\252>%w\237=w\206\254<\206\204~=_+\001\277VI\210\276{\302G>\037X\236>\255\246\304\276\305\277\276=\316|\231\274\213V?>B?\312>\254\215\265>\000\031\035\277\240\235\002\276\233c\351\276\367@\232=\034\344\251\275yl\204>\217\327\020>%\326\213\275pd{\276\004\213\365\275\021(\340\275\035Kc\275\206V\265\275\177\034G\274\355\337\213>\265$\007\276\315\341\032=\353\354\215\275\377/\220\271m\310\265\275e@\226=Lv\246\275u\277\230\2771*\222\276\361\005@>\317(\010<\022\035\r=\216,w=\212\226^>Y\345]\273W\305\230>#SZ>\030X\241>\351\031\024>p^)\276R\352\234\276\350rA>G\311{<\334\200J\276\021\201t=\256S\372\276\252j\233\276\003Ni\276\177\034\014\275\265@T\275\265+\016\276C\222\253=n\367\367\273j2a\276\347\352\314<\245\2633>\346^u=E\373\021>\033YP\275\306x\207\275\032\032\204<\246\371F\2760\207l=\212<\225\276;%q\276\204\265m>\016Z\243<\262\0334\276t\235S>\307\351\352=\034[\306=]l\302=\266\3114=\026\247\204\2764\265\316>\'\322_>\253\263\226=K\0365>\311P\244\276\242Qi>\312\376\237>\230\364\007\276\266r~\276\227\313\375=Qy;\276R\220\343\276\356\314\036>\304\362\241\271\257\360\016\276f\021\220=\201\000\301\275\023\315\327\275$\017\243\2767\376\246<\362\017\006>\213q\003\277\314\271N\276\321 \202>\177D=\277LC\207\275\336\346\036>\2768\341\275\221d:\276\216V\002\276\227ug>\020\304\260=\220\243\212>\322\247\327>\316\203\001\277\314\354\211\276Y\213\213\276NW\260=]L\242>\033\354\352\275D\312\246\275\261\357\353>\2742T>\342oi\275\316\202\357=e\224\226>\372\326\216\274\256z\214>\026\337\002?\271\251\321=\233\246\007>\361\252\361=\316=\270<\373\257\350\276\256\326\323\275A\360\304={F\276\274\213@\020\277\277\326S\274\262\321i\276\204\306n<=l\336\275\240\216,\274\343<\244==\265\355>}\342\342\276\220i\373\276\021S\005>:\205D\275\257-\267\276\030\317\022?\256\266\250>\035\366\024\2770\253y>\253\t\321\2756C\'\277\002)*<\350\361z\276<\335\327>Ib\037=-\213\273=<\000\032>\207\324\275\275\3547\263\275\376\222\213\273\317\nw=\370\320\002>5\241\007\276\201\273E\275\362{\253>\200\217\245<j\022\315\274\376\366$=v\242\260=f\233\206>\000\353\251<\036\\\216>\037\\u\2764x-\275\353\236O>\233vc>\374\346E>x)\010>\342M\204=t\217\364=\020\243\237>\304\351\014?\353q\220\275DH\225>\002\0304\276F\367\212\275\224\3337>\021\311\251:\355\004\017>)\016#>\232D\325\275\267\0137\274\204\177u\275J\321\230\276\362\253K\276\251F\261\275s\342\360=\374\206\363=\r\r#=\262\0017\275i\241\220\275\363\270\232>\007\005\317=\201M\023\275X\0036>>\241s\275\253\263x\276|\216c\275;/\300>\002f\357=\010\302v>`\233\205\276\202G\217\275\265\271\275>\231\352\202>\271.\341\272\001\237\324\275f\251-\277%\026?>\231\334\">\307O|>\260)\332=-\313\332>Lr\325>\266\010#\276\315\336b\276\036\005\031>XL\030>\317\305\013\275S\317\347=\267\241\316=48 \275\270Ih>\327\327\367\275q\376\035\277s\220\355>(\277\242=I\\\322\276\003\022\237\275\357\032 >og\033?\256G\312>\267\351\340=\276\315\016?*\365v\274\r\000,\276\337\233\205\277\206\025Z=\024\201\245\272\320\325\004\276\214\3308>\376\247A<\212\312\333\276\200\206\214=\\\215E\276\375g\177\275\270\242&\2761\234\312\274\225^\245\276\330\354\205\275\334{\246\275a\3018>\312\322\215\2766\370\022=\2159?=\224\313_<ew\252>R\205\376>\217\024F>9\261v\276)\013Q=n\202\034>\317\273\332\275F\365\207=\n\233\305<\177u\003\275(A\275\275\275\333\031\274\010\014\227=F\203\364\275\022Y\241\276\0306W\275\310\232\006=39\326<T\216\006\276T\027\270=\361WR>\206\336\035\275\261\367\257=\374\332\000\276cS\013\2752\226z\276\224\302B>D80>e$\257>\376\375\211>W\032\031\275\264y\314=s\207\357\275\027dW>;e\030;\362P\350=\007\366\006\274\021\371\366=\000H\022\275s\r\265\276\342\207\224>[5\332\275\251;\217>\225\344\255\275\014 \"\274\254-\223\274\017\036\301\276o;t>p\207\267=#K\253>\315\345\355\276S\"-\276\331\034g\277\225\373}=\243\204\214<\365z~\275\312\316\311=\267\344\t\27572\250>\251\321\005\274\262S\335<X\371\272>7\3329>\247\014#<\335r\241<\356T$\276E\220\261\276\303|\335\276\322\336|\2766\322\036\276\001QN=\203\270\273>\2333Q>\320\000v\275\230I\277<\331\t/>\256N\024\277\363S\005?-!9\277\014\265\t>\307\234\262>f\363U?k\255\341\276\363\220\010\275\007\271\263\276\2707\257\275z+#\276\326\322p=\367\317*?\304\014\232=\245Q\260\276\230\014\372=\330\365\036>\304\303x\276\333\010\360\276W\340\211\277\277E\353\277\353P\216=S\210\224=\223\247\313<h9P\275\263p\307>6\022v\276E:Z\276r7Y>v\0310>\322\233P\277\311 ]\276A6\211>\027Nn<KiH>\271\216\215\276\032\2021\277\203\321\032\276\224rk\275\2165\300\275\310)\002\275\262\2200\277n\224(\275\245\242&\277Ce\201\277\333\014:\276V\273e\275j)>\276\306\031_>\213\243\034>\347\334\023>\202w\226\277\026\324\330\275\032\000\231\276z\005\275\275\251\033\206\275U\031\205\275uo\251\276D~\220\277}\025\346\276\250\227\330\275\200\263\252\274\311\216\266\276\345\360\363>Rmc\276\233\023\037\277\315\226\226>\317\214\204>2\203h\276T\323\010>\016\020\252\271\022n\031>\000Z\240>P1\226=\304\274\"\277!x\346\274\000\336\266\274\364\2470=\355\242p\275Yk\010\276\202\247\272\275\216\360\025=W`x\276\'n[\275\376+\323>\337q\256\275\221S(\276\221D\221\275\026=\375=\366\331\006\275=}\262=\000\222d\276i}\203\276\223\374~\275\312\354n\275\003\360J=\373\215\027>4\225\312\275\310\372\"=\213\305\232\276\275vc\274,\365\323>A\230\007>\237<\375\276\244\267&>\016OS\275\027\033B=\032.9=\214\222R\276W\230\337\276\322\036\354\276V\361\003\276\013p\222\275\336\020\260\276\t\031\242\276\266\310\204>\312K\263\276\022\361\247=\034\357\000=\274\276!\276Mz\005\275\266\316\245\275}\033!\276XU\366\2769?\007\275n\373.\277\177\273\032>\277\177B>\362\204\006=\010\016\374>\313n\272>\261\377 >\344,\036\276@W\203\275\361\t\204>)\332(\277\023\307\261\274\373\306\232?\037\'y\276}\216\337\276z\363\311=;\305\252\2765n\225>.\344O>\002T\n\274X\001r>\002\274&\276\302\001s>*\n\324>5\024\214\276\353\004\320>\351\320\231\276\"\320\217\276\361\231\256>\223\033\203\275\316\024\215\276g\016.\276\240G;\2766>\227=\037\272[=\322\035\007>\300\321\013\276D\361\t\277\212R\024\276\275\034_\276\226%\351\276\312\331%=`\302H=\005\001\345=\373\355\000\276qI\275>B\200\242\276\375&O\276\217\017\237\273\232Vd>\354\031e\277\226\261\200\274\340\002\217=m\255\316>\300\316\252\276\320\344&\277e\016\366>\342\230\035\277r`0>Y{\217<\024vt=\r\320\202\276@\211\212<\342\021\250=\255c,\277\271\026\237\275\266S2>u4m>\231\341L\2760uR<\2628z\275\211\227\010=Ke\332>SJ&>\010\320W\277\246\360\017=\366\305\004\277\213:u>\376\266\354>\337\246\353=\377\234\024\276\241^I>\315k >\354\234\313\276\230O\252\274\255\333\343=~\267=>\246\346\255<$\364\320=\3076\251>\327\215\036>Ur\'>&\241\017\276\014=\235\276\207\034u<\272\222\034\275\024\\\331\275o\3720\275#7\"\276\364\327\002\277\316\237c\276W\315P\276\030:\347<\270C\037>\325C|=\030K/\276\250\331\336<\340\267\370=\t2_\274\340{.\276\371\324\216>\260\304\254<L\331\365\275a8W>\000z\322=\271ZP>\334NM\276\331\350(>5\177?=~/\317=\366U\261>[0N>;\321\024=\255RO\275\341\250\202>%\272\270\274\272$u=\233\235\005\276:\177\233<|\211k\274Jt-\276D\\\226=\016\007\271=bS1\276{\265\004>\355\325\007=\024\027\225\276\374xc>\210g\220>]hV\276Bi-\275\206>]\2768Y\351\276Ynb\276%\372\320\275\017\006I\276K\262\002?(\262\353=\033S\244\274\314g#\276\367\350\322\275J\334\352\275\223\344\313=#\326S>\267j\022\276z\256D>M|\004>R\331\330\275\004\345\"\276I\317\231=\354qM\276}\212\232\276\345x\276\276\302W&\276\2720W\275\006S\236=Q.\223>\222C\203=\263JX\275,\305\310\275:\374\010=a\240\221\276&\300A>\372*)\276\010\305n\276F\241u?s\221%\276\307\257\365=\023\370N>\251\223\331\274V\327&\276\341F\027?\032\324\271\276Y`\226>\267\330\303\276s\247\\>A]\336=\222\200\020?\001\332\240\275k\217\\\275\217\3537<\377\250\277=\230P\346<\351\252+>\256@9>\214Ra\276>\351\221>0\210\276=\223q6<\2062N>me\025>7\351\361=0^l\275?\002\270\275\276\201\255=S\230\235\276\tE\212>\004d\324>\220_<\276\375\343>\276\326\033\240\274\345Y\031\2749\024H>\252i\026=+\361\020\275\334\365\021>^Z\367=\265q\217>\367\302\371\275\301b;=)\013(>\255n\001>\215\253\033\276\254P;\276=\027\370\276\000\253\310>\000\310\240\276U]Y\275\371\214\354=\356\217\341>wa\241>$\263\256>\310\370\342>m\247\207>\305Zy\275\250\"?\277\274\334\313\275\366\272#\276G\326\022>\006J\355=\315t\224=\245~\221>\353\r\227\275p\216X\276\277\3763>\266\251\014\276\364F&\276\177\303t\276\004.\\\275\021\2775\275H|_\275\266\214\354=\376\r\277\275;I\005>,\344\234=\274-:\276(j\252\275v\275\241=\334\254\364<\021\250F>\275\016\357=2\256\311=\202\217\001\276~\261y\275\303\325!>\205\364\333\275P\210\033?\311\301F>O\226\250\275x\375\362<\324\031u<\331\306\225>[0l\276\347\340B=a\231b\274\244\314\302;\242/\254=Z\374\002?EH]\276\224X7\276\3661m\274\234J\211=[\232\256\275\014\235\232\277\030\356\271=\211\354\256\273\217\335\256\276$@\260\275\342{\205=\252|\002\276\247\234\303=-\353\030>3{@>#\212\370\2756l\341\274Cx\240\275\200\224\035\276\004\014\251\275\355A\326\275\242\375\357\275\226\251Y\276*\243\013\275\352\211\205=\331\262!=\344(\366=Y\211\337\275\346\316\310=\360\\F\276\202\323\212>\277\315m>\366\2056\276\246\225\206>P\254\251\275)x\207\276\032\3345<\261\252\375\276\331\025>>\337z\252\276:\233\214\276\361\347\017?\244;\307\276\002w\033\276\224\013\215>?C\t\276\014\356\275==\023\020?Cn\321=V!\222\276/\303\327\275H\303\242=c\351\037>\030K\337>\317s\227=\262\3215>\'\263\003\276\266h\371=\254\004\013\276\333\217%\276\372\223#>=\213+=|/x\275\215\265>=\2233\350=\205\245\201>\376\207\232;\3631\236>hv\t9\377\246\037\276Mj\207><\207\372=l\317\354\276`\211C<_\212\325\276k\036a>\360O\203\275\227=\007\277^Vq\276\314\034\303\276\261\311^\275\034\373d=\317\037\025\277\210z\004\276`-l>\327H6\276\227/)>T\331!\276\247\363`\274\342\002\276\276\367\271 \275\372f\363=mP\223=\236\336\201\276z\027\000\274y\361)>/\030\221>\255\264\375>\331\177\236\276\346\251Q>bTR>\263\204\207>\017+[\275\3556\201\276\356\022d>[=]=\361\300\\\276\346\005\373=D\255\356=\217\346\030\276^\254\001?\005\376\203\276$\336\213\276h\036\370\275\352\302V\275\351\024\212=\267A\023\275\206_\'\275F_\355\275#\276\325;\333`\237=\246\213\'>D\231G\275\007\270v=\204;\225=\364\226C\275\235\330\277\275g\022\200>\257\201\331\275\232\210\255\274J\363\335=N\375\322\276\244m\224\276U\334\341=k\024\275\275\006\353\035={W\246=8\260\023\275\333\371\221\276\001\034\234\275B\333N>p\230\360<?\001\n\276_\310f>\266\256&\276\307\221x<7Z\216\276\345\216\267\273D\315\004=\333w\254>\345\001@\275O\344\275\276\nQ\222\276\325_B\275\323\244\225>\177\216\306>\332\246d\276\222\321\355<\270t\275>B\016\312=\275\270{\276H\242\341\276\217\212\230=\213e~>\322\234\320\275\220\360c>+@d>\235z@\276\267\261\007\276\201\013\323\2762\220\235\276\272\266\263=\033\241\310<\'\307\307\275^iW\276/\353f>\320\315\001<\304X\255;TP\032\277\030\221\306\276N\323\343\2760\256\247\274\026\036\344>2%\016\277\021\345\237\276\233\371#>\256\031\\\276\034\353\023\276\3558u>\'5\\\274\365\320\262=q\263\037?5\246\220\276C\363\234\276\317d\227>\3771b\275`w\371=s\225\"=\266\372\355=q\226\001=\332V\360\275\247\365Z\275\236>\365=\22526\276\217\261\302\275\313Q\231>\316\326\376>\321\377m>3\034\207\275\273\307\002\276\241y\324\275\2218\373<\236\341\225=V\272`=o_\265\274\334\244e\276E\276\210\276\353\021\311<pN\263\277F\205\253\274z\374\203=#\237g\276\222\274]>-\364\220\273\376~K>\246\201\315=\244w\\=\242\320\215\276\036O\346\276\231H(>b?F\277\271\000\202>E \234>\2350\252=\226\372\341\275\034\"\016?\221\263D\275\337\203\334\275\376\337\007?\237\014\274>\327\327\260>u\301\341>\266_\242\276\031.K>\301C\305=\232\361\n>\375\325\225\276\224\305\256\276\217\206v>kM\234\273\354\376\203\274\341C\215=8_\004>)\014\320\276\255x\212\276q\235\310\276\003!\031\276\201\021\214\276\343\201\255\275\266\202\272\274Q\220\305\2743\3463=>Q\373<\375g-\277\321Ef=\224N\212\275m\303\227\276\323\257&>\372R*>8\265\"\273-\037W<S\022\364\274\330*8\276)\251.>6Vh=\313u\002\276\304\241\337=\245\315\321\275,\261G=\301\267\355\2759\341W>y9:\276\"\315\262\276\'\277E\276\277\226\035\274t\r,\275\3542\322=\027\"\313=\323\366\302\275y^\300\276yE$\276xJ/>\\\010\347:k\300\307=\362\216\306<<\374\n\277d\337\225\276z\325\023\2762D\010=\036\016\030\276~\317H>1\272\237\275\025i\202>g\034\027=]\016\317\276\253\204\007\277\206u\373\2755>\027\276\275\'\341\275Z\330\032>\310@\347\276\274pE\275\377\004\030\2760\224\022\274\001v\202=\335\025\266\275n\306\375\275\232\301\023\273"
      }
    }
  }
}
node {
  name: "b4"
  op: "Const"
  attr {
    key: "dtype"
    value {
      type: DT_FLOAT
    }
  }
  attr {
    key: "value"
    value {
      tensor {
        dtype: DT_FLOAT
        tensor_shape {
          dim {
            size: 12
          }
        }
        tensor_content: "\177\001s\275Z\223L>\013\342{\2755\225\370\273\350\216\234\275:\321q>o\003\266>#]\207>*\316&\276KE\247<P>\010\275ar\354\275"
      }
    }
  }
}
node {
  name: "f4"
  op: "Const"
  attr {
    key: "dtype"
    value {
      type: DT_FLOAT
    }
  }
  attr {
    key: "value"
    value {
      tensor {
        dtype: DT_FLOAT
        tensor_shape {
          dim {
            size: 3
          }
          dim {
            size: 3
          }
          dim {
            size: 12
          }
          dim {
            size: 12
          }
        }
        tensor_content: "\355{x\277\031:-\276\177]\215\276x\356R>4\033E>\346\005|?yA\252>\350\346\203>\200_\213> !\243\276e\312a>\325\245\000\276[\020b\277\237\021~\277%\231n\276&\317~=\356\302\016>\260\262\271?\010\027M=\355\254\354\275\330\364\310>O\266w=a.\364\276>\177t\276 \201\r?\371\373\002\276\207\255\344\275\331\202\'?\021\347\253\276=3\374=\224`W?\226\007s;\206\030\237\276\322\272\343>\014\327\371>\372\243&\277\250\006\216?I\303\252>\223\360\265>\312q\223>\3713o\275\351\306d\275\307+\270>+\274D\277\323l\026\276}\373\006=a3\262\275\001\2060\276\347\273\'?\004\006\233\276\302\346;\273Vz\236>\335\315\212>\r\231?\275\336A\207?\\\232\214\277F\347\272\276\001\255l\277FA\230>\206\352\007\277e\t\025>\353\205\273\277\366Aj\274\016?\240>\313*$>N}\001?h\277_\277\313t2\276+\034\216\274&T\003\277O\024\355>a\353V\276\327\361\020?\224\347\232>\203\376\030?\333g\t\276\324\270\004>\225\370\032>\010\237\236>\366\036\216\277Y*\354=\235q,?z\320c\276\032\216>=^\332\221=\320_\004?^L\242\276\204\267\347=\267\203\335;?\353p?\203Z4\277\261\254\221\277\332\223\035\276\177\275\254\276\272\330\006>l\024t\276[z:>\331\330\030?\337\342\271>\262\262\016\277\345y\356\276U\253K\277~v\217\276\245\373\n>\330\363/\275,\001\216?\027(\005?\201\257Z\276\005$\235\276@\352\010?O\345\036>\236(\200\276\346w\014\277\021\007\225>\234\376\203>\342\352~?d\235\322\275\302Dp>6\007\337\275<\311\346>\000\275\333\273\274\3601\276\302m\357\275z\2047\276\321\365\303\275?\211\273\277\267J\014=\372\370\225=\250\311\251\275n{\200\275i\207\020\276\372w\230\276\2076\235\274V]B\277;\221\274=3\231\202\276pv+\276\n\373\267\277B[\022>\354\370\366\2763]-=\274[\330\276\323\2654<\303\247l\274\026\240\231\275\373a\216>\026\010\356>p]\330\275t\017>\277*\307\340>\250\251v>\310U\r>\231Ky>\321\272\021\277P\351\240\275\033\213\320>\352\342\303\274\226:\277>\031\3522\276v\241->\305D2\2764\314\357=\245^\373=\343\264Y\277\013J\343\275\272\'\004?\274\376\251>\345h\241\276\252C\313\276%\177\247\276\234B\037\277?\233\013\277\372h\320=\036\273>\277\317\207\251\276\351g\013?\002\265\212=\014\270\203\277\021\373\217=\020U\005?\014\366l>\327>L\277\0030\006?5\262\367=\2229O>\204\035\227\276\001I\252?\3230\202\276>\n\017\274\001}\037?\004\240K\276/\232)>\237)\214\276\300. ?q9\354\276\201\362\322\275wxW\277R\346\322>?\016\202>\367IC\277\225\033\251\275AZ\303\276\375f\344=\315\343\223\276\001\350\007?\217\3528\276P\035\221\277\372K\371>aG\014?\376\312\017>\321jL\276\364\345O\277*!m=\\c\252\277<f\000\276\357\305]>\001\010\276\274B\"+?\257\210\004\277A\3327>\352\3336?\264`\225\276\302\215\317\275\356Y\\\276A\261\324\276^\340_>\337A\255>\310j\264\276\3736\236\273!\336\217\276\212\032\260>\232%\010\277w\341p\276\n\326\221\276\360\314\236>\r\246/\276=\360\203>\372\321M\277<j\264>h\304\247>\234\016Z\2775\037\001\300\227\263\n\277\255#2\276\217H\036?\211`\210\277\344 ;\276\230\223\000\277\206\321~=\031\315\335\276/1y\277\363\303\201=#\231\016>\323&n>\026\275\203>\276\323!\276\327\326\201\275\306\257\014=\340\024\r\275#\032D?\014\')>l\277\373>\223\310\365>\333k\202\276\321\327u\273\'\217J\275\035c\205\276\230\266b\276]-\336\275\325af\277\232\254g>qC\326=\033&\365\274\025c\201=P^\007=\253\235\367\275\322\2204<\213\202\232=\231\301o=%\325.\2768P\233\276\353\201\312\276\220\311\213\276rv\320\276\316f\010=\251\377*\275\317\336C\275\242\251r>\310E.\276\267\032\341\274\322-L?\303\364\347>\377\374\321\276\2400\305\276\361\237\330>\272c\206\275\250]\213>)\342\254>\230\356o\275\221^\247\276\022\322J\275\376cU\276O\205C\272\336\377\244=D\261A>\322\331\202\276\026z#\276\356\266P?\256}m>\316\004\215>\264\006\017\277\315\022<=$;\250=+u\254\276`\t\271=X\364G\276\313T\216\275l\355\275>\246\376%\277CI\002;iqm\273\304\347k\276\321\211\263>i\001\344\276\030Q\030>W \327>\324c\343\276fB\207\276-\013\236>\266\005\204?\315\034v>\n\n\277\274A\351\035\276=-m\276/\021\322>H\226\226>0\352\005\277\215\tJ\276H{\271\275\216\223\320>\332\0049\276\244*\242\274\316\371\307<K_\304\275\312\0332\276c\261\326=6\265\027=\342k\027=\037\"\240\275bE\221?\021\325\203\277\234>\227>Mz\003?g\255.?\022\030\024\277,w\316\276\335\010\274\276\004U\331\275\3208\210\277\2314->\344Si>]=\013?\210t\206\277)\022\324\276 \353x=\344z|>\251,\240\276\020*\010\300Q\004G\276P\037E\276\367O\306\275D\233\307\275\365\363\317\276\235\356c>\203D/?\024\263\233>\200\016\007\277\303V5>\321\367Q\276\200=\312>p\317\007>\331\342\310=\321\000\254=\340bx=$\226)\276\234\322\254?\3362:\2779\003\320>0t\302\276/j\036?\255\337g\277.P\274\276D\330r=U\314\374\276\026\217]\275^3x>s\224!\276\240\360\253\277\233QE?\361\352\212\276ug]\276\000\321i\276\264\017\217>xx\303\275e\215\202\276\031\320\310=\257{\313<\267\313\257\276&\234/\276\205\277\327\275 \022U\2770\360\364\275\373\376\305\275P.\221\277\023\372:>\010\035\222<\021\224V=\265\267#=6\241\220\276\357\022J\276\262m\311=|r\243>\255\364\264\2766\232:\275\034\036\212\276\000!\337\275%\303\021\275\353\233\206\277\205\2567>\267\013\225\276\204\017O\277\376>\034=Y\341H\276\201\351\226\276\017i\312\276\301\334\370\2766WY?UyG>\242j2\275^n\223=\252Ku>09\024\277\314\203\365\276\311\352\316>\246~&\276$\\s\277}\'\371\276+\341\r\276[\225\276<\343\323\250\275\020\033\347\276Vo8>\217o6\275\032\2371\276\351u\'\277\313\246.\277\367K<>\025-\026\275\256?(>n\225\213>\212\205~\276\253\260\310\276\344\321\006\272\270\314\214>=[\335\275g\002\343>\344\033\333>}r\354\275B0\221\277\210[\323>V\026U\276.\351\006\276O\2214\276-\324\307\275\352%\226\277@\242\210>3f\317\274\302\021\200\276\014\376\014=\241\224=\274\213\222%>k\276[\277\021\276\241>\252;\244>\377\252v\275l\341x\276\013\214u?\212\330M\276\335\364\255<\332\312\017\277\265\tQ?[\233\267\276Q\325\022\276\2541\021\277\332\036\034=K\032\342\276\246\264\350=X\243\007\277\211\242\307>Ahn\274\347\247\006>=Yc\276$\320\023=\323p\375=\021\375>\276\313l\343\276\342\263)=^H\027>\36624>K\273\">(\177\241\276\256It>\345q\022>GWf?\210\350\330\275\036\367Z>\371\312e>-\2123>\267\326\362\274I\310L\276])\304=\017\335\020?qA\367\276\273\210J\277\024$\344=\316\014\373;\022!\261\276\206\2017>\326\022\347\276Q\272V>\246\343\270\276\033\'\016?\203\277\003\277\027Z\304\277\273\213\021?\223\3148>\321\201%=(_\246\276\217\342\366\276o\362\361>iE\271=?\t\353\274\"\350Q<f\366\026=\\\2653\276%\2605=\211S\255\276\032\341\255>\336\026\274=\r\267\035\276W\363:\275\203c\223\276\231\221\262\276S\365\007\276@\000\033\276\005\335\245\276K\\\003\276;\024b\277`\243B\275\037v\007>\350)\026\273\354\250\\<\017r\267\275\010S\253\275\177\177\357=\272\200\206\277\206\235\023>\030\274\033\276p\326I\276\006\253\303\276X\3653\276E\347l>,\353i\275\346P\336\276\027\272?>\344\211E=Z\262\373>\n)\271>\373\376\211\275\255\023e\276+\246\276\276\311\'\306\276\013\"\210\275\262W\"\276\0060\201>f\013\231\275\354\240\032\277\344\203\201?\351\236\r?\005\021\230\275uT%\275\214+\007\277\357\351\020\277\2209\340\277b2P>p\202\244\276.\340\227\276;\240\025\276\344\275{\275\327\360\303\275\356\2338\277K\227 \277\364\026\247\276L\224\337\276\002>\231\276~\261T\277\302!|>\224r\224\276%\214P\275\335\001\027\277ZS\210\277\332\273L?\264\022\331\276:\335\376\276P\205\331\274\016Io\276n\3537=\350\304\206\276z\301T=\224\250\031?\275\344\016>\244%\247\275\000\010\003\277W.\216\274T\237\001?\211g\035?\221\266}\2743\221\212\277\314X\370=*\227\310\275\330_b\277<e\326=\246\035\033?\350j_>\377\237\233\277\255\271/?\261\372&\275\267\305\226\276\220<L>\025z\252\276\307Ny=\0348_=[f\302\276\030\330M\275\272%8>I)\323=Md\032?\273\256\007?_z*?pgW\277^[\025>:_\324<\032p\037?\246:\263\276Q\026\246\277lA\226\276\347#\n>y\256\243\276\315\310\205\276}&\201\274r.\264\276\010z\302\276\206/\023\275\331*\232\276\325\016\273=\211\004d\277\331\024\"?y\312R\277J\362\014=\252\352\257\276\307+\235\276A\036\262\276\243\244\233\277\340k\317?\230\316\217;\307\006\323?i\247\214?\337\353\272?\364\316\204\277\316\3477\300\323}\022\277\271F\020?\274Y3?{\332\236\300;p$\277Y\362\260\276\3314x\2763\240@\276\266\301Q\276\237\375\013\276DW\365\276\317\326k\277\205KO>\005@\311\276@S\025\275]\303\327>e\307\305\276\312\021\222\276x\3716\276\273\251x=b\371\361\275\017\364\036\277\022F\250\274\257\355\037>\237-\215=\217|\202\273zd\361\275\244\022\335\275\250\330W\275\270.*\2776\241\302=\364r\214\276Y@\004\2774K\223\277i\342I?g\237O?&kY\276}\225{\273K\003\230\276\006;\312\276]\225\341>\266!\263=\370\n\001?\252D|>U\277]\276M\311\023\277\234\022&\276\352%\016\275\272i*>\212\003u>X],\276\336V\020\276\337\334\262>\273Mi>-X\355>\025\356\'>\334\204\\\276\002>\246;\274\326\236=\247&>\276B\341\201\274\251\365\021>\347\350\224\276\230\361S\276[\305\025\276E/\000\276D\355y>b\316\001\276GV\204=+\263$>:`v>\325\377U=\262\357\025\276RyZ\276J\214\227>\222\004,\276=\'{\276\253\336\016>\320\272\230\276\373\313\002\276\023\034M\276\272(\301>8V\t?\3726\344>\010\001\035\276p\003\215>\317\023\'=b\210W\275\341\030;? \271\317>\007`\036?\341%\222=b\210\242\276\246\225A\277\254<!\276UT\340=\246\260\220>\301\271\004=R@\212\277\030\037\254\276\354\3601\276y\370\020?\212\364Q\276u.\">XQD\275f\027\024>\267R\203\276\337H\343=@\356@\276\257\022\214>S\264:>\tw\234=P\243W>.\203_?\245\277\t\276\362\223 ?\311\341\322\275:\372%;\263\215E\277\261\332N\277\252\324\224=\206\245o\276}9\236?.\241\213>\036\033\'\277\300*\310\276\021\\\343\276\337\310\215=\274\255==\333\022\227?\312\322\t\277\363O1\277\273\n\004\276[p\000\277\212\370\342\275\230\231\333>\021\013P?x\315\324\277\262\334\240=wx\006\300\360\0223?\242+\273\275\266R\004?j\334\200\277\013\225\375\276!6\230\277\014\274\203\275\214\"\311\275=\206\227\275\200I/\277I0\004?)\255_>b\020->\352\016i\277\250=\263\275\362\377M=\010\321\223>I!\337\276#Xl\276\262\0171\277\2005;\276\3046\331\275\372^\351\276\271Q\336\274hm9\275\337v[\2777\200k>\203\206\205\275X\317\206<\t\326X\275\370\000\244=\003\3373\275\306\321\357=\306L\255\276\\\302\266\275 \344@\276\353\360\013>\225\2218=\337\177\274\276\036C\266>\335p\232<|n\277\2764BQ\277D\031\276\276X\r\302<\275\371;;\264}\260\276\'\251c\276o\242\036?G}\223\276\235\340{\276\010\t\025>\0071V>6\221\243\275H\377%?\264\312\247\276\255\300\304\276\265\021\027\277\3568\317>_h\323=\307\035\020\277\221\347\251\276\'\201\034=]\243\034\276*@1=\036M\207>\336:\273=<X\230>\026\346\215>\275Rd?\244\014\300=\243\013\307>h\223\224\276K\351\277=\245G\320>\244\374\271\275\201\220K\274OY$\276:\261\363\276\340\\\342\276\235-\001\277\314T\r?\277v3\276\027\351\"\277\323\231[>\361\326u\277\033\240\235\277Y~\250\275\006\001\352>\244,X<&\337A\276\263\302\335\276\246\346\007\277\370%d\277h\336\013?\216-\001?2\205\300\276\231\314\305;\245\216\262\276j\242R?\'\035\026\275\220r`\276J\266m>\247\336\324=\354*\310=0kt\277\211\266\265>\"\360\365>\360\216F>L\001S?B<\027\277\027\375\255>O,\310\274t\335R\276\324J\016?\3560G=JE\345\276\206r/\277VQh>;\025\220\274\266c\267=\003\247\343>0\013[\277\314\274\016?\367P\355\274\016+U>\230\243\360>\330\0349<\347\032+\276\364\006\030\277\031\341;?\341\245\001>*v\032\277V\237\021?\303[]\277a\315\360>\362\3732\2757\234\313=%\013\036\277{s\337>\275Pg\275g\216\267\277\n\251\311=\353\337\371\276\323\357\002?\010f\026@\302\312\013\277!X\211>u\207p>\211=\241=8N\263\277\243\206.\273\233]S>=[\232>e(\013\277\025~\365=\337\017\023\275E\n\215\274\253d\033\275\263\312\016\277U\017\203;\217\347\350<\221P\024\277\366\375\322\275k\267\016\276\0348\371\276\217\267\356\275\330\255\"\2760e\026\276<\304\323\277\023\371l\275g\353\244\274\034:\224\275\036\2563\276\373H\035\276=%?\276\017\007>>\220\330\261\277z\256\030>~\245h\276\007\377\263\276\2567\023={\242\007\275@&\256\276\210\253B=|l\317\275=\207\231>t\031\221\275\034u!?1\001\250\274\262\306\010\277\255pq\275\300\251\243=\236$~\276\372\216\330\276\301\255$\276\223\326\323=\360er>#\333->J)\330;\024s.;S\007P?\200ge\276Og\256\276\2532\317\275\256\321\243\2756\237\245\276S\227R?1D@\276\253\367\221>\2345\002>\230\355\200\276u\224I\277\303\317\262>\361\200!\277\263\355J>[\360\021>-i\214\275d\233\264>\037\276\035\276\277E\222>o\245\370\276`\206\361\276A\325\201\276\032h(?\315\023/\277N\273\t\277\034\367\266=\257\364\206>\272\244\326\275\035\356\253\2745\250\t\277\231\306E>C\022\264\276\027\264\225\276\355P\305\276$\252\251\276x\026`=.u\021\277\252\314\265\276u\342h\275\274P\361\276\002\007r>E\2475?(\t\212=r\370%?5r\266>\360\332\336\276]\311\270=\'lP=\217\212\037=H@->\265\317\200>=\235\342>Vj\240\276\235&\247\276\352\306\201=Y\002J\276\326\205~\276\006\216Y>1\220\241>\235\336\207\275\016 \366;y\206T\277b\177\346>\246\300\005?\237p0\276\220#\351=\004MP<\223\357\017<>\272\257>\200\266\244>\370l\235\277\221\002V?\214M\234\275\271iT?\272\365\026\2770\307\006\277\366?^\276\024\177\330=h\256>\276\253\356<\276\3263\312<\222\302\327;\026\345&?\177\306\016\300\224S\243\275\212\302\214\276\201\222\302>Np\366\277\334Nj?\025\303\367\277\375\035\356\275\364B\246\276\344w7\300\020\322;?\253\377\262>\030I\036?e(\037\276O3\320\275W\311\323\275\010@\022\277-\217\261=\216l0\277\335;\226\276\344\2068>*\207\260>\031\250^\276/\354B\276\nI\032\276\227\357\210\276\321M.\276\372\0330\276%\307\223\277\275cE>d\370\037\276\235!^=\\0\342\275k\010\250=\272;\203\276\205\222\025=\206\337\266\275<V\034\276\006\234\233\276qF\335\276N\210u\275u\200\220\275\301\314|\276\001\256\274\274%\246K\276\352\333\247\276m2\033\276S\014\017\276\365\325m\276\210C\313\275\327\3709>\231\217X\273\000\235\241>\234\007\351\275\350\246N\276\0342\024>.\337O?\302K\270>\362Dk\277\306\n\343\276\206\314\327\275\364\350\316=\257\005K\276hH\226\275\336p\315\276\017\2443\276\014\253v>\273\374\032<\303\351\'\274S\022\252\276\211\242(\276\020\'\000?\005b\r>\201\237&\275\222\274\207\276\221\355\031>O\035/?\330_*\277\204Bc\276\263\263\243>\243\342g>\017Mi;\346\254\310\276,\355q\276\006L\376=\321?\273>\251z\216\275\323\013\206\276\341+N\274\014(]<\320\224\333\274\001N\231\276K\302\254\275J\221R\276\026\236)?\271\357(\277\346,\213=U\346l\276\253w\234>\212\311\200\275\342\254L\2771\025W\277\377\"\267>on\220\276\206L\313>\332\204\t\275\202-W\276\250j\270\2762\035\257>K\274\363=\251\204@>R\262\225>\3037\003?!\273&\277\204s\227>(\376\302\275\254\333\323\276\372\000\260\276\326\372\006?\223\252\272\276at\233\276lq\003>g\205\022?\367\007T\274\205Lo>\362@[\277\373,\362>\317\256\266\275\017J\332>\363i\003?\3218I>\300\272E\2776\360\331\275\3754v\275\274\2601\276\027&\332\275\211@\206>\355\362+\277-\365\033?\030\2539\276\271a\032\277b\330\037\277\257)<?\034\376\360\276I\360b?\263%\323\276\324\231E?\320\261\333\275\360.\353\276\251\265:\276$\003L?\021\274\303>4H\205\277\t?\222?\243\225\371>lH,?\220\016S\277\343\217\251>\271O\037\276\270\n\346\276\005\001\241\276@\327\257>quq\275\307!\301\275G\252?\276\005\302\016\276\000\327\235\2769+\014\275\252\017w\276\311\034\361\276\212\243\237\275\005\257\231\275\336\347\346\277ho\006=h\210\036\275\252\"S=\206~\255\274\343Y\334\275\262n\231\276rb\215<\030\274\357\276\203\344\331\276\336\032\241=jk\271\275\235\214%\277\372\334\236\276\006\260\005>\203\014\n>\305\177\244>U\010D\277\002!\020>"
      }
    }
  }
}
node {
  name: "b3"
  op: "Const"
  attr {
    key: "dtype"
    value {
      type: DT_FLOAT
    }
  }
  attr {
    key: "value"
    value {
      tensor {
        dtype: DT_FLOAT
        tensor_shape {
          dim {
            size: 12
          }
        }
        tensor_content: ",\224\275\276\336^S\276\343\0072\275{\200\275\274\244\261\006\275xk\211\275\255 ?\275\017\327\034\276\253\203\303\276\333\320\324\274n\360\036\275n_\010\276"
      }
    }
  }
}
node {
  name: "f3"
  op: "Const"
  attr {
    key: "dtype"
    value {
      type: DT_FLOAT
    }
  }
  attr {
    key: "value"
    value {
      tensor {
        dtype: DT_FLOAT
        tensor_shape {
          dim {
            size: 3
          }
          dim {
            size: 3
          }
          dim {
            size: 12
          }
          dim {
            size: 12
          }
        }
        tensor_content: "1\240\371\274\232\243\235\277P\r\247?X\353:>\264*\226>\230E\033\277q8\224?!@\210\277\327\017L\277\016~\r?\252\307\345>\355\201\226?\273F\252>\037\223\204\276cN\260=\">\257\276\020\223\366=\345\321\316\276e\305\322=%|n\276\314\214\006?\375\301\032=\000\\\343=\212s\r=0{\026<\375-\311\275\323M\305>/\270z\275\333\320I=aG\311<\251\221 \277b\266\000>\317\355\244\276BJ\213=\300\025!=y\314\351\276\352\240Z\275\323f\230\275\236+p>\264\255\215\276\3466\241\275U\302\226\274{/\314\275m\365\264\276Mie\276PA\273\276\353\316\242>\007\031\037?\252\035V=Y27\276\225b\302>\340F\027>\243g\\\276\353\177\222\276\267>\">5\247^\276\355!\212?\241\215\013\277\371G\022>\367\332\203>\306\356\306\274\335_\252\276\021\350\231=k\033\206> \223\037\276_Z\234\273\211\377Z=P[\214>0\030\361>?\030\317\275*\206\303<\31420>\304\257\275\276U\010,\276kT\007=\\\253.\276I\331\226\276[\201l>\000\205\214<Du\357\276\306\335r=\335\217\264\276\r\025\031\276MW\203?cCG>o\"u>\0170\324>e<e\277Z\231\302>M\343\203\277WY7\276\336\376\t>\013\323e\276k\016*?\362J\260\276 R\260\276\2342\370\274Vds\276\321\332|\276b\236\253>ak\261\275\356\241\">\257@\007\277\302C\236=\3306\212\276\225?\233\276\246\235\221\276\311G\317\275[fr\275\262\003\357\276r}\020\275\364\315\251=\356xa=\312\232\262\274\376\211\013>\034@\370=\315V!=G\035\352\276\342XN<\034\357\030\277\031\235)>\231G\372\2761}M>\200\320\245=>E\204>$\244\316>\202~\307\276\020C\r=\301\211\255\276\216\330\360\276)\177\216>*F\007\277\264\314\301\275.\273\243\276\314\246\254=\315\023b>\216\303\345\275\302/\366=\240s\003\276\353\237Z\274\363\001-\275\203\221\302\276\203ny\275\215@\370=\260\277\036>\260:\340\277\031\256]?\200&v?\343y9?~D+>}\311 ?5\341\323\277[B\006>_\221i>\262\254\265>\264Q\232>0vw>0\016\345\276!\253,\277\2655\016?\355MW>\001C\342>:\000i\276\244\327\267\276H\231\222\276h\221P\276\365z\262?\016\317\212\277V\301\272\275P\211\273\275`\t\340\276\263\324\251\276\244W\304\276\244\271#>F\331\234>\027l\235\276\212\242\267\276\303\251\017\277\324cD\277\373W\035>Ka\272\275\377x\'\276\007:7\275(\020\274\275\207\275\"=\370\001/>\361Z\302>\332\255\024\276\rk\265=\300\267\005\276Q\330I??m\261\276hF\202>\271S\032\277b&>?\001*\274>\026nX>v\303k>\265\252\232>\344\360\357\276L\360\246\276\177R\335\275{\300\233=B\276\032\276\233\000\260>\031\347&\2779\362 ?\345i =\224\337\367>x\356\305\276\212\262\235>\'e?=H\333\022\276\3468g>\355\252\256>\206\2453>\020\206\224=\316\215\034>\366\245\030>h\375\262=n\350\221>\2412\342\275\303\317O?\255\263V\277\301\316.\276\025\220\n>\345\257<=\243\372\330\276\370\210\313\276\367^\324\276\255h{\276\t\234;>O\323\006\277p#\206>\035\253\237\275Ko\013\275\217V\201=\355\304\344\276\227\254\004\277\353\243\303\276\276\244o\275x\236\260\275\266\306\272<5\267\316\275%\277e\276\213\230Z\276\231\201\347\275\006\001B?}\221\227>d\201\316;\350\344\323?\217/V?4\301\241\275 \255\266\275\302Z\246;\216^\221\276\356\3003\276\267HY\275\270\220\342=\251\360\271\276\366\312!\276V^v\276\355.2\277)\037\226>\014\337L\276\242\203h\272\223\023\366\276]\325\014\275\177\025\336>\365,\266\276vTs\276\201\340#>\200h\222\276\240\277!\276!\017\377\277V\t.=\252\355(>\302\305\212>&\213\365=\214\2740>\331\302\014>\242\232\353\273\254ez\2745\251\204\276]\\\037\273\"\252\373>\337k\340\276\314\035\236>\217\023\222\276\014\006\264>\210\272k\276\177\232\000>}\245e\275\230\201\230>\254\271\276\274\311@\217?l\036!\277?\361\212?^P\365\276\243-A>\227l?;\034\264\320>\231\036\022\277\261\355\252\276\2556\205\276l\353\325\275\225\300s=\227\205\336>\000BN=\355\363\005\276`\320\202\277b \234>\003\177\203>\266\021\002\277T\0102\277\013\024\253>\311~\347=\"^y\275\t\356\002\276\033\251\362<_\033#\275\250\315\337<\t`\027?\256\371D>\212\212\215\275\362\200\215\275\021\223\007\277\031\335\313\276|\220p\2758\327\206\276}F\343<\354!\251>\240\254-\276A\311\034?\215\031&=\024\322\">|\205<=8\272\372>\324\265\002\276\374\331,?C14\2769\036\226=\265\231\261>uN\303\276sX\226?\247c\361=_9W>\000\200\243\274\320\335C\276\245\224\000\276\327\025\013?bc.\275\010\304\214>\347\324\310>\263\344\217>\332\373\242>|\210\354=\tl\262\276\372\'\231\276\362\200\265\2734\032\376;I\035\013\277\3235\261=W\360\342>4i$=\2446G\274!\014\371=\224\314\375\275\344\371\303>r\247\022\276\312\017\237=+\325\325\276\226q\351\273\2753O?P>3\276$\254\257>4=\327>\334|\344\274b^9;\010^\243\275vn\215\276\275\275w?^\341w?\212\032s=\365\360}=\254\300\017=n\255b\276 \200\254\276\244%\377\275`\217\356<\300\031\324\276\023u\263\274\341\214\236>\375H\350\276\217d\310\277\363\0237>Z\224\235\274\361\035\267\275\335?\251\2765C\"\276\3368\274>sN\262>\036q?=$\030\246>I\2479=\372;\361\276l\306 ?\312\210@?*\305\254>\013\233\005\277+r\014\276\307\013\031?O\322\222=:\264o=\000}L>\266\226e\276\373_d\276\2757\'\277\204\213\352?\216\023[\277\013\3209\276\225\373\212<J\3774>x\010\377=\237\332\265=\317&y\276)\2202\276\2367\236\275t\2500\276\355\226\013?\004\023\234>\353\254-\277\261C>=\324\037\321>(S\020?\335\332S\277Y\023_?\271\221\214\277\"\304#>klK\276\276lu=\334\273\006\300\313uJ\277\004Z\013\277\363\233\314;\3141\252\275r\324\030>=\262-=N\330=?\314\362\006\277n\367F\276\002\335\023\2777\270W\276a\322\370=t\031\226\276l*\304\277\206U\006\276\372C\n\277\232l==\025\2322\276RD_>.\216\000\277\327\027\037?uF(\277g|\207>\201\255\213?\210\313\014<:\2525\276\255\010\221>\376\247<\277\327\2545\2751X3\273\020-t\276\326\216\315\276\231\215\020\275\326\331\034>\r\273\275\275{\225%\275\314\222\032\276\223\351|=\304\240)>&\035\320\276\350X\020>\032\035\254\276\t\360\362>\004\233\001\277\342h\207>z~\021\276\212\027\376\276\303\033\006>J\265z\276\341\254y=\003(^=\254F\017\277\274\303\322>\367\213\254=\255\372\217=\367\272\235\276\30301\275tP\222\276^/\026?\223fs\276r\246H\276\334\333\365=][\000\276\270\\g>\017{\245\276hP\347=E\336\362>D\020b\277\324\037\254>P|\202\276\333R\212>3\323\321<\037.\210\275/\"E\277\201Z\373\276\'\247f\274r\361x\2735z0>p}\343\276\215\001\033>\213\220\366\276r\371 ?D\232\022\275\001\334\037?-\021\236?\007\033\365>\036\177 >=\252\266\275\032\035\202\275~\231\237\276@\316O\276?\003\207= \r\007?\034\211\t\276\240\241\030?\214\360p>\365\n\302=\035E\207?\211\031z<\351\026\214=\t\347\253=\256\227@\276\037\365\000?\203\211\371\275\251\035\251\276\241m\344>\302\307o\272@)\365=\347H\004?\207\373D?(:\177\276\330Y?>\360^\254>\374\312\375\275\320*\250\276?\277\245>\002)\">;l\030\275\260\226\227=mB\007>M\037\034\276\370\177M?\017b\242\275SI\t>A2Q>\367\273\201\275\034SW\276\316\376\200\276\376\335\036\276\320\233\036>\377\'\337\276\201\321\373\276\222\304K>\246\270Q<3j\331=\352\257&\277\230\026\346\275H\342\265\275\316\215\275>\0109\363:\371\377}=\307\\i\277\232\256s\276W@h\276T[\032\277\002\002\277\276\254\320&\275\205Sb\277\267\206&?\327u\313\275h2\025>{\036/?\006\347\240;Y_x?\336\t;\277\213\227\305\276\304\t\347\277\310\350\230?ES-\276:\303\r?\352\345\254> \251\337\275\002\001W\2753\002\004?\027..>\262*\002?L\003\233\276\377a\224=\216\014\271>\373\272\353=M\353 =$\033\303>&\260\007\277X3\200\276\363n\\?!\327\315\275FK\224\276\265\221\311\276\225\232E\276\357\375\212\277\354\210j\276\232z\222\276\226`\361>\304\355i\277\210\363\307>\345\004\203\276h\322X?\302{\356=\257H\246>\017QM\275\232w\016\300L\230\n?\241f(\276\233D\010>\325\203\204>p\206\313\276\310>\235>cW$\276\315\354y>\205\347\307>\31263\276\211\352\273\276\014\021~\276\024U*?J\254\327\276\000\1776\277\036\224-?\3137\010\277\001s<\275(\207\230\275 M??bx\366=\341\267\027\277\364/\313\275\372\350\200\276\217\353\r;\200g\000\277\304;\241\275\033\352\204>\340\243\n>\332S@?\300\274\224\2765\006\032>f>n?_\356,\276\376\355\244?Q\253k>Y[\014?\226\225\211=\350\2239\276Q \002>\025\\P?\235x\260=\267\315\234>\267\362\013?*\222M>V\330:?\304Y\302\277\024\376\034\276\266\312\221>*u\313\277h\245\223\277\347\304C\276>\215t>\226\326\203\276\344p\222\275k4\311\276\023\374\275>\251\234\237>\241\214g\276\303g\320\276\277\021e\276\025\267N\275\026t\333>\240/Y\276\252\0224?\026\025(?#a\010\277\025?\346\276\222=\207\276\275-\304\275\tgD=\214[_?\260B\t?\033\366\022@Ai\370>\000\003\013\276t\013/>a&\224=\302M\r?\001\221\005\277R\210\302>\367\332\273\274\207\323\230>\370\351\365>\243\334\r\276\231C\035>Nw}\274\'\247\232=\234\334|?\230X\007\277\357\217\224?n\342\341\276\316\006n?#_\n?\377\335\345>\030_$?m\276\211>\344~\032?\340[\245\277\302\272\246\276\032\356\245>\023p\257>T\225H\275i\257Q\276<G\001=F\'\n\277\245K~>\352I\226>F\267\306\275\215\335\330?\2353\006?=\330\252>!\000\304\276p\363\224>\216.\331>\267\321Q\276\265<\201\276\221\233Z\275k\321\354=\261i\237\276\262\027I\277`9\251\276c\373\210>&U\321\273\201\233(?\304\326\307>\030^\306\273\225\247\"\276\303<\t?\005;\177=\337\025\252\276\272r\211\276\034\336<?\3701\205>\231\026\025>\345\303\260>\300 z<\220\022\356\276\263U5>\237-H\276\335\032\272>+.\005>\323b\245>kf\016\277\222f\013?\223\021r\276W+#\276e\022P\275\300r#\276\325\225\n\277\355\254s>\355\000\221\276\000\nN\276nw\322\276\340b\224\2760C.?\251\257\021>\277rA>\355y\004\274T\316\274>\3303]\275\373\325\343\275\366\211\022>{aQ\276P\243\007?\225\314\222>\260\013\213>\275[\307>[\345 \2760\367\205>\200\372\273>\275\243\240=A\302\312\276\034\323\337>\262\251\177\276\200x\213\276\311>\026\277\270Th\276`:1>\234e\201\276\322\010/>\217\004\254\277\312aN>>\2610\273^\325\265\2762q\301\276\212\253\361=\203(\204\274\327\241R\276\023*\037?\332+\001\277\2571\022\275\0133\373\276\302\221\000@\372\025U\277\345\316\236\276\337\336u>uSt\275\"\306\335>\330\003\311=$)2\277\301[r\276\373+O\277E|3\275\277\231\336\276y\365.\277\370\2645\277j\333d>\251\233\303\2760\327\360=\372\245\205\276\250\352\006?h\367\243\276\360\237\260\276\213n\017?\362p\230<\027 \036\276\304\203\016\300\243\254!?`\266W\274]\227>>0J\217>\022+\310=\2214\217>\252\211\t\275,\233\214>\220\314\334\275\020\"\334\274s\316\237\277F\227?\276e\244\266>/\177?\274\020\242f?\202\246A>\371ry\277\344\023\272\276\177A5\277/\311\230\277\203\326\264?G\216\317\276\202Q1\277\341TI?.L\241? E\r\275\306\264\224>\377\033\262\276\215\326O\276v#+>@UP=1\351O>\235\231\200>\006\3400>:\221\260>5f\346\275\256\306\232=\340\300\316=\3059\034\277\307nh\276\241o\027\275\272&\322>\372|%>zl\320=\376\300m>\ng\204>\035 N?\302\353\257>w\373`=\343d\317\274\023\324\356\2763\222\307\274\nZz\276\252W\233\276\0220\035;y\013T=\250\3659>\221J\034\276\332\300\022?\006\365\227<\247`\177>\036\310\365=\035\301\027?q6\226<\346|\273\276\237\302e\276\350\237E\277}\251\004\277\340Rd>\256+%?\243\315\341\276\245\006\355<\203>><\272\205C\275b\353%\276\210\362~>L\203\246=(\023\223\275Y\214\314>\343\3632=l\263c>j\274\244\276-\332M\277\345P)\276\025\267#?I\242\275\276\364\216\205\276\270E\216=\235+u=\245V\311=x\374)\276\321]P\276\332\317I>\036\021\265\276\226O{\276\272\325_\276\365%\376>\r\351t>\244\306\264=j\372#\277\373uy\276O\024\016=\000~\217>z\014\221>\203:z\276\035\230\351\276\333R\260=V:\026\277^\1778>@\302\234\276\032\315\222>\370q\246>\307\315\224>\2639S<\254h\377\276y\365}\276\003\221\305>\357M\301\275\341\344\n\276\371t\"?\221\262\003>V\226\001>\014\250\370\276\n\026\242\276\340\271\025\276\3039\035\275\264\377\311\276\206\247\275\276\340\201\225\276\264\013\325<[q\375=\014(\000?=\004\r\276D\271k>\367\223\024<\272\256\333\276\"\225\030>\031\317\024>\375}@?S\024\352>Y\261p\276F\306\263\276}\374\016>\027\204\327\276\272\213\236\276\334z\024\275\240\312$\275\331\236\242\276\345\223\033\276\3632\000\276D{\307\275F\304I>\034\t\027\276qu\350\275?\340\242\275\216\016\014\276\003+8\275\3757\336\275\035]\251\274\016M\227\277\025+\021\2771N\342>\335\2744>]6\206\277\261\256\272>\334y\230\276\\\336\t?\270\220\311\276\304\232j>\215\316^\275\323\340\266<\271E\264>DWs>\345\373s\275.\365\267=\276\2539\275~\333\001\276r\036\304=\266\347\224\276\205\376\026?\205\226I?&\006\017\276.\363\332>L\226\031\275w\353\223==\313\017?E\364\346<\344\035\256\276\220\276K\277\267\302\336=`G6\277V\0051>\247\251\327\276\323=\254<\353~\232>\265\214\213>\246\217e>l\'\233\276 \266&\276&\234\036\276@\370:=\373\013N=\354\337\020=k\263W>|Cd>\001\245\201>\323\250\217=t\331\260\275\204\367\255\276\320\337\323<\007\230\270>\3061\373\276\222)\334>K\214\004\276_\000`\276\245.{=vB\037\276 \021N\276P-,>\t\266>\276\260N\004\276\377\034\226\276\360c^\276\335\366=>!>\n\275\270\231m\2747\212+>-\365\252>\003\323e>\241\226\321\275\300\016\346>\346\333\024\276\254Q0\276\310\251\303\276\326#\204\276\377\002\013\277r\377I?\235\225\242>v`\033><Zz?W\320\347>\326\035\\\274\"\300\245>K\253\346=\344f$>0\364\350\276\3257\205>]F\313>BH\313\276\257\251\216>\026\375V\277yb\324>\231\364\325=_\023\263=\00081\277\226\200\033\275+\2031=\244\254\021?\355\275\232\276\2334\000\277;N\275>\313\367\335\276E\202\242>#\215\335\276\320\027\225\277q\274\252>\334\304\031?0\242&\277\326\021\030\277\003/\230>L\202\\>b\307\036\276\257$\201\276\337\225\355>\256!\320<9\264\256\275\235\001%\277\343@\323\275\177C\221\274\375c\212\276\321\005\315>\020b\036\276l\360#\277\372\243K=X/x\276\345\376\252\273\354\344l\276`/j=\373\024\277>*h\000\275\226\240\002<8-\357=\322\212\213>\356\3034>(N\034\276\307e\366=$\255\315\275XWM\275\2127\307\276\246T\304=\331 \024\275\345&Z=-\231\340?g+\307\277d\342\277=f\320\227\277\023$)?\257\241\243\276\242\263\245>j\276\346\276\025\230\310\275S\315\213\273&\003\017\300\3706\374\275\363\260\272>\301?~\276\363U\356<\317/\344\275}\250\243\276p\341\001?q\326V\277;\245Z\276\256\221\345\276&\324\352\276\266\271\332\276c\017I\276l\300\"?5{\005>p\277\203\276\357\375\310=\351$2\276/\326R>\365\2744\275\350\214\243=l\322\002\277\220\303~\276\022{o\275\323n\023>\373\353\377\276>\311\254\276{5\234\275[\006\311\2760\215\267:\033\242\023<\341\3267\277\321\t\222=\037\234\014?\244i\025=\3003\000\276\025\035\220>T\345B?\264\334\205\277\232\377\241\275\351-=\277\225\203\325>Zh\007\277O\252\244>2-~?\370\211$\275\231\253\361=\256>\363\274s\202(\276\3508\351>\343\207\371\276gK\037>\255\027\264>\025\'\224\275\353\261\256\276v\204)?\210\256\252\276\213\0056?h\206\202=\333\322\214\275\"\267%\276\352\017-?\342wZ\277\366\024\030\276y\211\217\275\005\375\240>FR\253\276\212\211\034=(QC>JPX\275\317\356\245\276\303\310\261\276\235P\215=\031\2525\276\342\016\016\277)$_>>\301\372=\354\276\300\276Y\376$>\232p\320\276,\242\002\277k[\202>\027$\033=Ck\337\276v\307\366\274\025c\364<\221\365\036?\230\2355\276\303cF\274\250J\n?d\202\354\275:j8?,c\214=?\017\333\276N\371q\276\226\303<?\265#I>^\237\030\275E\264\231\275\n\211y>\342\205y>\31748>\016\230(>!\033\231>\'\rv\275\215\013\'>\313\367\241\275\306\031\267>\240#D\276\352R\302=\303U\364\276\310\363\260=\031\335\257>`x\224\276\301S\245=[/\036\276\254s\265\275\004\333\034\277\262\351\010?u\246;\277\3450\276\275\356\300\250=)\275\205>mt\347\276&\246\236\276\246\230y=\307F\212\276B\266\312\274\207Q\273\273Wf\010?\311\310O\276\215\202\232\275"
      }
    }
  }
}
node {
  name: "b8"
  op: "Const"
  attr {
    key: "dtype"
    value {
      type: DT_FLOAT
    }
  }
  attr {
    key: "value"
    value {
      tensor {
        dtype: DT_FLOAT
        tensor_shape {
          dim {
            size: 1
          }
        }
        float_val: 0.35592222213745117
      }
    }
  }
}
node {
  name: "b7"
  op: "Const"
  attr {
    key: "dtype"
    value {
      type: DT_FLOAT
    }
  }
  attr {
    key: "value"
    value {
      tensor {
        dtype: DT_FLOAT
        tensor_shape {
          dim {
            size: 56
          }
        }
        tensor_content: "\376\030$\276\367\237[\276/\023\211\276\244\023_\276\302\367G\276s\217\237\275\377\263l\276&=\037\274I\010\005?\357>>\276\332f\347\274u\323\345\275ZD\202\276\336\231\201\276\032\315J\276\313\256\210\277;Ji\274e\355\360\275{\366\267\275\342\237\210\276\033Z\314\273\252UI\276PNF\276\025gu\276\211\362\305\275\276\214 \276c@q\276\211l{\276\206%\212\276\325\rq\276O\314\211\276\033\206\353\277\365\244\347\275\306\000H\277\315N)\276:$i\277\254e2\276\246\212o\276\305\253\333\2755AP\276\301\331\371\275\242\250\272\275\267\233\026\276\021\005A\276(\216R\276\347\374\353\275i%\330\275\231Y\033\276\026\270.<2@8\276BeR\276\302/d\276k6U\276K\220\026\276}N-\276\207\340\323\275"
      }
    }
  }
}
node {
  name: "b2"
  op: "Const"
  attr {
    key: "dtype"
    value {
      type: DT_FLOAT
    }
  }
  attr {
    key: "value"
    value {
      tensor {
        dtype: DT_FLOAT
        tensor_shape {
          dim {
            size: 12
          }
        }
        tensor_content: "7\t\276\277ij(=\3705\025\276\275^\370\276S\351+\277G\300\374\275\210\347\210=\264\004\361\276X\230\361\275\000\200 \2758\375\013\276\352x\004\277"
      }
    }
  }
}
node {
  name: "b1"
  op: "Const"
  attr {
    key: "dtype"
    value {
      type: DT_FLOAT
    }
  }
  attr {
    key: "value"
    value {
      tensor {
        dtype: DT_FLOAT
        tensor_shape {
          dim {
            size: 56
          }
        }
        tensor_content: "\222Y5\277bIk;/\276 \276\205O-\276\310\000f\275\026vr=\346\257\206\274o\n\204>\027:e\275\3479\035\275\250\371?:\030g\014<a\241\233\276IK\302\274ZB\222\277(\232\024\276\365z\246\275\271A\343\274-\372h\277T\204)\274\314\335\227={\236\033=\300Za=*5\307\277n=\007\277e\366V>\"\0010<\2404[\276c\256*\277\0372\017<\314\0244?6\205K=\364{\310\277\273\025\016\277\026\356\356\276\245\222\211\275\220\373\200\276-Za=V\376Z>\177\234Z\276\257O\262\277\023%*\276\231\247x\276\363\223\263\277\177*\217\275\342\020\247\275e\311*\275\244\232\202=\014\351U\277\255\215\223\276\324#n\277\351\362x\2776\001\036>\023\227\317\274\314O\205\275\307\014\217<"
      }
    }
  }
}
node {
  name: "f8"
  op: "Const"
  attr {
    key: "dtype"
    value {
      type: DT_FLOAT
    }
  }
  attr {
    key: "value"
    value {
      tensor {
        dtype: DT_FLOAT
        tensor_shape {
          dim {
            size: 1
          }
          dim {
            size: 1
          }
          dim {
            size: 56
          }
          dim {
            size: 16
          }
        }
        tensor_content: "H\332Z\275\2466\021<O\371\014=[\265\347\274Z\263J<m\215\222<\366\251\030\273/\305p\275\245#V=\244 S<\014I!\274\306\225\317\274Y>~<\210Op\274\355\325\355;\215\374\033=g&=\275\260L\321;\336\014(=u\201\001=\223;L\275\204+\007\275\000H=\274i\013\333;\336[)<x\014\302\273\334\t\263\274\276\363\233\274\254\"\204=K\235\032=\036\177\243\272$\n\263\274D\241\355;^.\335:\336\370\025;\336\023\337;re\303\274\212\023\325\274h\311\244\274\252\2259\274\246\027\256\274n\222\326\274\034\002\254\274\325\037?\274da\007\2740(\233\274\353U\177\274\000s\253\273\351\200\r\275\364\227\216;[\035\332<\232\251Z;\316\033(\275\302#\222:^7\334<K\000\334;\301%9\275\332\330\326\273\207]\303<mEY<\\<Y\275@\"\270\274=\361R<_t\217<R\030\244=\231\235\310<ry$\275@\214Z\275j\'\305<\222\212\350\2735\344\361\274\315?\'\274\272 \312\274\2456\240\274\254\347\263:\327\256\007=\350\357\013\2759\242\017;\005\022)=3rG=]\227\276<\261\223\337\273\022\355\000\275\3405\244\274\031\376\014=2d\322<\317\260\267\273\354\003\306\274\313\237\240<`\366!=\036\367\302<\367\374\374\273\t\331}\274\006v\304<\224\201\n=@\243><3\243\206\274v~\005\274_\263\013\274R\261\311\274\320\253g\274\345\230c\274\177\314\221\274\313\253\006\275G\344|;\310\357@;&\323\231\271\331\334\007\274)Q\274<\234R\255<2\241\236<n\231\222<\216\335Y=\300\007i\273lRB\274\245_\t=\021\2747<\360\311A\275V\376`\2757R\016\274\317:#<\343\367<\275G\321M\275\004\2302\273\021\307m=\204,\341;6\241\350;\316\301c=O\212\026>\000G\026>_!\026>\316\014\026>\355k\026>\263!\026>;\371\025>X\343\025>=]\026>\306\016\026>\333\332\025>B\311\025>vM\026>\307\373\025>\333\307\025>!\262\025>ry.\275\346\t\375\274\250\230\201;;\222\006=1?\353\274\215\342\013<\261\210\304<\2006G<b\277\0379G\326\256<d\230M\271\022~\'\275\032\237\374<G\225\301<n<\263\274\352\204\204\275\351\226\216=\036\032\006={(p\274#\230\205\275Qs\314<\232=X<\341\325\201\273:\022\307\274\340L\301\274\201{\316\273Kr\023<N\n\244<\307\315\210\275\217\013\240\274N\331\340<\362P\211=EQ\027<\205\3667<\300\3324<\313\346\r<\004Mo<\235\333\213<\230b\212<O2i<\'\216\215<-\315\244<GF\242<\202\341\211<\247\035d<\337\330\213<\256q\212<\304jb<\324\242\343<\313\240\302<\335\005\276<UD\271<\344\372\330\271cr\337\272-\373\331\272\"\177o\273\374\220\025\275\263\350\026\275lm\025\275\274}\034\275\277Y*\275\242G&\275\322\303 \275t\027$\275\306\nA\275\376\211\351\2747\3657;\035\025\262<\005\3070\275\312T\256\274\217\222h<\203\244\010=\236y5\275v[\247\274\304\023\215<\341\220\022=\315\020,\275~|\247\274\266\303d<\304#\351<\203mc\274<\313_\274?b\206\274\321\252I\274\3426#\274\332\307\t\273+R\271:}\302 <A\362q<l\336\301<\205@\334<\317\365\001=\317G\003=\033\242\021=H\'\367<G\221\310<I\373-\274O\024)\274R\277\261\273\241`\n\273[@\272\273\037^\351\272VQ\355;-\0136<\277\260\237;J\275g<\025^\324<\240\032\360<\230\373\r<\036X\251<\367\362\002=\023\t\003= \213z\274\342\301\003=\021I\036=B\231)<j\246>\275\024\251\237\273\310\004X\273Iz\021\275\247\223\034\275>\270\323\271Z\260\267\272\244\351\033\275\254\035r<\256\263N=q(A=\302\256\255;\024.\n\275\247iF;\317\347\376;\252\024.\275\320W\365\274\313p\201<ek\365<\001\215d\274\'\270\000\275{3\227<n\345\016=\252\320o\274\006o\310\274<\367\324<\2379\r=j5\022\275\025\007\t\275\320\267\300\274U\010D;p\035\366;\370\337\277;\254\021e\27470\310\273\367\010\215\273\271W<=\377\334_<A\251G\273j\3038\274\306qC=\273\355\021=\006\034#<\351\245.\274\360\316\221\274\3564\030\275N\325\035\275\275\345\214\274m\200-\274(\361\006\275&=\031\275T\255\212\274\324\035G\273\025\355\327\274\377P\n\275\250\321r\274u\236-\273{9\310\274\340\314\001\275\356|a\274\211`\332<#\022l\274\220[[\275\313\206\264\275\376uP=\373I\022<\271\242\002\275)A\215\275\260^\233=n\003\n=\215Z\001\274u\014>\275Rn\315=\343\217p=\346\357\212<\263\305\267\274\204~\266\274\351\310\005=\302\333\205<\326\362\262\274\275[\263\274?\235\317<\363\303\202;\315\002\007\275?\233c\274\315\317\360<;\035b;4R\377\274z\271\222\274\002d\353<j\363\203;Eq\325\274\030H\030\275\311\3206\275\315\335\300\274\243\231\205<\027\365\016\275\357YR\274P\247)<\212M\033=\220m\220\274O\373\323;\003JQ<X1\204<#\340U<\315\365\336<\177\320\017<\205\344i\274\360\007\254:\014;.\274\331\377\326\274\021\345\"\275\204\350\245<\314\331\035<\216\244\027\274F\311\020\275\257\360\312<\353\314\235<\345A\014<\213\247T\274\000]S<\342\000Q<\261\013c<Lg\344;\364\311\020\275\210\370\360\274\323ba\273X\016K<\276o\232\274\350)\203\273c\310\257<\0211\225<\250\337\344;Oe\237<\317\232\303< \002\020\274n\332A<\312\366j;\312\215\230\274S\334q\275\240;\034<D\\\306<\246%+\273a!2\275\351\217\013<\231\337\322<\003^N:\301Y\025\275b;\017<5\244\266<\251\215\t\272*\023\004\275\342\327Y<z\364\227<\374O\242\273\305+\374\274}\263X\273C\"\024\273\213\354\344<\177\020\r=D\323\341\273\272g\237\273\325\327\314<Rk\337<\223\246F\274*\027\354\273\207\304\304<D\306\306<[V\203\274\013\035\326\273l\020\345<|\256\361<l\0164\275\243Z\033\275ok\023\275\202\3071\275\004\027\013\275\221+\315\274E\312\307\274\353\255\t\275\321}\022\273|k\272;~e\277;4\3444\273\332]\030<\222\nd<\303\304i<x\244%<\245\030J\274\016<1\275\351p)\275h\233\372\273}\315O\274Fh1\275\244m#\275|\355\225\273TYI\274\275\223-\275\370\273*\275\324g4\274\006*V\274|\031-\2759&<\2752\343\303\274~\371F<\304y\001=s\227\240<1[q\274\232\206\277\274\225\370\r<\322\t\327<\355\272\252<\312_\"\275Ob\241\274hdO<P\210\030=Q\266\312\274\335*\033\275\340!\236\274\226\326\216<\227\360\256\272L\177);>n\020;8h\234:\221(\217\274\327\342\003\274\267p\002\2730J\035;\324\204(\275\3374\000\275\323\010\262\274\302\234Y\274\272\007?\275?{(\275\304T\016\275\207\277\342\274)|~\274\361\021\224\274\202[\217\274\263\276\200\274\226\366\253\274mv\303\274\3141\274\274P\277\247\274h\213\263\274\027 \302\274FZ\260\274\204\211\244\274\024\016\244\274\352N\244\274\031\371\214\274\236\025_\274\346\263\277<x_\375<\337\232\352;\335,\331\274\250J\242<\230\276-<\022\3072\274\263{\373\274e\205\251;\241:\260\273\026\366\r\274#9\361\273\n\306y\274\001^\307\274zf(\274_\263)<1c\247<\014\347G<\230\236c\274[\312\276\274\356\343\310<\346\311\240<\0321\312\273\376\235\216\274\010\247\320<\221\374\262<\201\255\007\273Q\034e\274\271+\235<V\366d<\262\t\311\2730\362o\274[\033\240=&a(=8dQ\272+\343\027\275@\363\220<\027nn\274M$\217\274\220H\276\274\360\001.\275*N\003\275\241Uf<\3114\344<\364]m\275\243WV\274\"\027Y=\3105\206=\023\314[<\313\311\364<kT%=\241u\021=\244\3461<\200\010\257<<D\357<\257\332\276<[*<\273F\317\246\271\263\t|;V*\2679\254\325G\274\2449\\\274lP9\274\021\006$\274\020\004\334;{\020\373\274\371<T\274\345G\275<=+)<\217\201\313\274\035G\221\273:\t\007=\300\315Y<\003\215\304\274/\236/\274T\214\237<\357z\255<\346\300\204\274\260\253\201\274u\223\010:\260\032-\275>\337&\275K/\024\275\353*\374\274}{,\275Z:\014\275\230\031\333\274\025\023\250\2740C?\274\234\224\212:\377\310\014<9\220K<\345\030\322<\333\204\032= \275\'=\321\022 =\3353H\275\300z-\275^\300\024\275\315\270\322\274-L$=\202O\277<\276Y\300<\177\032\032= pP=\211\342\315<\311\333\346<\346\215D=\t\274\305\274\002 M\275E\010$\275J!/\274&\244\243\273d\001\225\273S!\225\273\260\367\367\267,\264\263\274\227\242\265\274h\312\341\274\272\361\355\274\346\337R\274\234\2734\274\\\333\244\274\025\026\371\274;bC<\341g\211<\266\366\273;|\261@\274\002I\243\273\003\260\317\273\341\317\330\273\240\323\341\273\244_\225\274\357Q\247\274\221\210\253\274\201(\246\274\270Q\277\274;Z\330\274\306\037\333\274\312\312\316\274\351&\210\274\241S\247\274\315\033\253\274\"\337\222\2743\356 \274\260\375\201\274\350\267\210\274\177\231Y\274\252\233b\274\302J\235\274\253\033\235\274\345Iv\274\373%j\274_x\233\274\357\307\224\274q\314X\274\215\3659\2745\036{\274V\375[\274\352V\366\273\364\342/\275o\034\217:@Q:=\253X\213=JE\r\275Y\315\347\274\2729\207\274\3051\230\273\251\237F<\016\365\001\274\026\213\r\275>\2136\275\365\306a=\276\2441=\0079\277\271\332\204\373\274H\273O;8W\214\274\304\356\341\274\n\232\310\274\346\300\266<$\337\231<\000;;\267\200\274)\275RJ\222\272\032f\333<M\315\344<E\366\330\274x\202\"\27560N<\225\310\'=\362*&\273\220\247\307<\004\274\372<\2020\006<e\332%\274T1\310<\274\006\364<l8\361;\231~\372\273\210h\326<\014d\363<ss\316;*~\344\273b\371\357<\3557\372<\242\331\276;{\201\363\273V!\000\275\376\317\n\275\250\243\021\275\274U\306\274^1\326<d\347\316<O\034\243<\333\203\356<6V\010=\233\261\024=l\215\t=q/.=\014\030\'\275I$\001\275\374\301\370\2749C\305\274>\026\001<\330\335\244;\224\020!\273\257\332\360\273`k\350\274\024\326\2249\035\004\321<\350W:=\211hI\275\t\002]\274\240^\222<Y\223<=1.C\274}|\255;\026^W<k\330\300<>A{<\177\220\242<\201g\247<\251\303\214<h\332\304<\235\003\345<\267D\317<\352\265\236<\254\313\237<\016\256\260<@\363\205<L\035\016<v?P<\276\211a<V\201\342;\0335\337\272\202\306\222\275v\362v\2756\252?\275\322/\001\275g@\032\2752\250\317\274r??\274\3668\\;\311:\230\273\264x\010<6\312\262<Z\320\024=\033\224\313<\226}\033=\"\026R=@\341\205=\350\321E\274\223\370\255:6\312|<&\243\245<J\312\366\274k\263\210\274\207\230\275\272;5I;\201\224\022\275\320\236\257\274?3\233\273\214i<\273\341\337Q\274g\007\363;M\024\303<\274\024\200<L\300\352<\262<\275<\267\253\376\273\000\310\250\274+\373\376<\251\246\247<&ou\274\032\343\327\274X\217\301<\305;\341;\305h\360\274\033\373\005\275 \260\266;S\272\207\274(\213I\275c\311$\2750\032\273\273_\302\031\275\345x\303\274\221\237c=\2557\t=\345vg\274\216\224\272\274H\003+=U\250E=ZK<\274\nW#\275\357\232{<b\354-=\266g\241\274\033Hc\275I\024\354\272QP\355<\030\217\370<!C\003=\tT\377<r\022\035=\350\264\002=7,\351<\2757\313<Fp\250<0\342B<uf\005<\230\262\250;W\225>\273\221\256\350\273\2360\217\273d\204\t\273\352,\320\274\316\202>\275\324\307S\275s\2632\275\274a\216<\242\216t\272\364\010\203\273\374;\303;*\223\353<CE0<\270\236 <0\260\303<\326+\030<\036<#\274\261\226\"\274\363\205\016<\350\236\003<T\311u<\245}f<\'\027\245\272\'\t\253<\030O\347;\215\006e\274\250O\037\275v\277\206<lx-\274)%\032\275sH_\275\357(\036\273U\024\326\274\310\302\036\275\301\324\002\275J\033\336\273gR\001=\016\2004=\307\230\310;\272\217n\274\325?[<jw\030=\017\342\341<\346\036S\274\022*\002\274%\r\026<\375d\234<\231t\320\273\376\252\342\274Y3\350\274\017\320\206\274"
      }
    }
  }
}
node {
  name: "f7"
  op: "Const"
  attr {
    key: "dtype"
    value {
      type: DT_FLOAT
    }
  }
  attr {
    key: "value"
    value {
      tensor {
        dtype: DT_FLOAT
        tensor_shape {
          dim {
            size: 1
          }
          dim {
            size: 1
          }
          dim {
            size: 12
          }
          dim {
            size: 56
          }
        }
        tensor_content: "HP$<TD7<\344jL\275\243\266\245\275\271\350\361\275td\002\275\306\244D\276\247\024\201\275\027(\201<\2210\376\274\275\250\312\273\032\264\032\277@nX=gf\306\275y\270\202\275\005\207\272\276\263g~\274\241\305\004\273\017m\316\275\203\270Q\275\021\326\364\273\020(\027\275:v\206\275\333\2507\275.vM\273H-l\275\035c\004<\0345\210=\204\200\313\275\372\266\017=\033^\000\277IZ\347=.\234j=\323\327\236\276\311\270}<\345A\335<\030\255\017=\325\230\217\275\271\273E\273M\014\344=AK\235\276\340i\216>\366\204\266\275\336\244\r\273Iqg=\024(/\274]\365F=A\364\240=Q6\303\272\032\\\275\275\356m\313<\035\007\274\274\365\204\377=p\342\217<\033\240\332\275.\2621\273#\310\264\272\316\"\032\273\210De\274x\241\246\273J\220\t\273^\321\2469\251\346\260:<\247Q\272 \351A>C{\203:#\2672:\001\336\212\273$a\013;\351\010\037<\267mA\273w7u\275\023\013\227\271\3240P:\021\312\271\272<:\345:\"\275\367\267\010I\245;\322\n)\271\307\260\200\273\301 \270\273x\363\"\273I[[:\362\207\202:\235\340\010\273\n\237\257\273R\206@\273wd\254=\346\333\034\273\277\001(\275\032$\241\273\231\247T\275\332\013\002\273\263\t\274;\301@\2679}\303;\273K#&;\370\"\\;n\006\261\272h1g\273%\266\216\273[x7;\2223\246\2724\200\342;>m?\272)\0279\271\237;\374;\001\337i\273\252~\006\272\242\337\324\271r\250\206\272\"\341E:\201\362\237\274S\034\241<6\001\t\275\325\177\002>\340\334\255\274\372\324\001\277\306\323\326\2746 \230<U\276\335\272<Z\260=\325\233\034\277\240\233J\275\311>\033\273\325\220\010=j\211\355=\267\333\030>\206=\333\273I\355\264\2745\366 \277\004*p=\227F\336\274\340\314\237\274g\376%\277|\036\347\275\215\007\356<]:(\275\301qY\275\314\344\005\275`;+=\374\232)\276<\363s>Fym=/\177\035>`\310\336=8;\204\275\022?\230<\354\216\256\274\203\221\031\275g:\t\275\207.K=\354\2579\274XPN=\363/\333\274+eo=\354<[<#\3470\275\335hy\276\214R[=\3163b<\322w\002\275\r\242/\274;s\260\274@\316\017>:\235s\273\266w \277V\033I\277K\253B\275\265\213\235\2759v\323\275q\262!\276u}4=O\356Q\275Y&\275\275\302\345\264\275J\241\302<3\275p<v\277\305;\273K\243\276a\204t\275s:\350<\243\032\255=t\264A\276\367+\205<\007\355\351;H\025\273\275\366\215\233\273\234r\3129\177\333I\275\373\'\020\276\205L\242;\005\216-;\351\325\020\275\347\370)>w-\314\275\275\203\315\275\256\177\242\274W\360\320\275C\235>>\235>\300\2750\\\327\276?Z\252\275\017\0332\276*\037\316\275\265Y\245\274\022\234\027\275@&\273\275\210\246\023\275\253\014f\276>qH\275\341\270\344\275\3064\244=\303\201P\275\374b7\275]-\206\276\264<\204;\260tb\275J\017\222\275\220\337\005<\317\327v;S,\253\275\027\230R\275\361C\326<X\023\240\275\343\235\370\274k\277P\276\020\272\213=I\302i\275s\330\253\275\"\314C\276 \251\203<\331\352\343\274K\245>\275\255\332\004\274\346\275\201\276\016u\371\274\266xc=\276\265&\275\n@\300\273#\205\376\273\274E\036\276\242Ie\276\020\242\245\273n\252_\274\300@\267\274\271[ =m\024l\275\366U\322\275`\324\313\275j\213\237\2732Q\275=\337\366\356<\021\363\262\275K[\231<\033\324\206>h\2162\275\235\214\226=C\330\350\274.A\245=Yfy\274 \211e=L\236\267<\344y*<\206\321\301\274v\306Q\275P\310\302\274[F\356\274\261|P\274\000l\013\276\3463#\276\017\032\313=\031E\237<\'Ua\276\207\321\211\275\007SH\275\341\312.\275^\2110\272Xq\302\2758<\350\275i\003Y\274Z\373\256\272R\352\236\276\274b\032\275V\336=\275\323\244\313\275\024K\221\275K{\224<^O\'\2756\241\323\275s:\016\274\246\341\204>}f\220=%\307\240\275MA\273\275\2142O>\341\303\220\274:\226\006\275\310^R\276\023F\t=\377_\322\273\342\362\212\276\236\2751\276\306\024\301\275\365W\220=+q<=\270{\212\275\267\356u<\306H\255<\224Q\355\275\354=R=s\214o>Q\331\232<\273o\n=\375^b\275GD\237=\345\355\237\273\020\333\216\275\007\244)\276\315C\362\275\351\335\314\273\377$\352\275\342\276\010\275l!\220\275\367\250\321\275\231\\\361;\342w\033\276@\343\177\276\274;\032\275D\006P=\266M\201=s\231Z\275\304F\377\275\257\266\032\276_|y=\033b\216\276q)\230\274\351\347/\275\3400 >\016O\021\274\352p\253=\326\247\265\273`I\354=\342\222\035<\"\'\033;c\301\221=\322-\217<\325\252\223\276Z\004\330\275\331S\350=<\341\276=\006m.\276w\237\320<\220\020\037\274\024b\200\274\330\255h;\020-u<\364\247\211=\220\2409=m\035p=\253\260!\275\267\241\250\274\376I3=\346\361\351\274\275\252\200\275\034\270\232\275\372\311\317=\027>\214<\363\272\257\274\250\247\276<P\276\237\275<\341\322<\222\317U\275\345\320.>\2134\210=F\360\320\275Bk\007>\374c\237\276\030!%=*L\347\274E\262\216\273Y\260s\275XR\255\274\301\264\247=\032\030`>\267+\304\2750]\032\276\024\251b<Ci,\274N8\273:=w\213<\352LV<&\346\316\274\313\177\217=\016N\032\275x\215\004\276\177\"\024=\001^.\274t\235\233\275\356/\254<\372\277\200\272\331{\t=\013G\033<\365g\207\275\022\267\313=GA\316=\233\301\213\275\223#\356\2740\t\241<\226\306;\275\300\004Y\275\036?\030>\265\304\277\276\003\312R=\031\365\204<\276}\205\276\354\211\341\273n\376\202=\310\223\232=\236\277\201=\204`\244\276\365\361\341=z\246\273\275\277\202\206\272\266\200>\275\310\277?=N\350{\274\340\210W\274\350\327\334\275\032\335v\274\243\267\317\274\263\016\305=E\206\207\276\tT\307\275`a\332\275\250\243t=H\362\034\275\203\217\277<Piu\275F*\023\274\336G\'\274\341\201\010\274\3771\306\275\225\013\260=O\200\373\274\342\034\036=\315\355\032\273\357\211@=\232Y\224<N\034=\275Q\207\036\277\010\246\300=|\373\360<\214c\377\273[N?>\211g\024<\230K\202\272)\r\t<\027\312\t<M\207\256<\336\034\370:\214\337\234=\214\203S>O\023m=\010O\204\276\010\",\276W\201\246\273\216#\005>\034\274K\271i\324F\276o\335\325\274\311\013\351<<\310v<\n\331\021>\234\222\313\275K\314\333\275$\362\013>g\242\035;.(\"\275(\277B=o\227\334\275m\347\221<\334\004\315\274\226\257\234\2734\253\277\275\002y:\274\335\220\274<\272\317}=\217\353\355<\224\341Q\276k\273\261;\340\240\010=\014va\276u\003\274=Ul%=\307D\306<\305+\341\274\"\267\370=b\332^\275\243{B;\177\370(>|\273\351\276\003~\312\274\306xb;\\<=>\331\376\231=\254\270\275>\226\274R\275J\366y<\201\332\020<8\3028>\344:\005=.I!\272\317\033\313=\351\202U=\036\262\007>\214\333J>\323\201+=\275\275\274\275\005U0=\020a\307=\\\374\242=\275\002\035=7k\023\276\311\266\216=\353\\\013>\214\236\232=<c\274\274\\\267\216=\356\033,=\004\264\336\274d\302\265=\337j\032\273\345\220\365\274\032Q\024>\311)\356\275\035\036x=\350\325-;q\237\350=*\366\010\273\233\316\010=J+->\220\342\207=\367=\216\274\366 \341\275z\257\204=2\204\214<\367Tz\272*r\216=-\257\237=\262\313~;1\353\351\275%\364\300\275 \r\007</b\017>\315\037\205\274eb\275<\'\215\007>\250\272\323=\327\002*<|\245\244\275\331\235\324\274\260|\221\275Q\311\265\275\213\325\213\274\365\270:>\021\342.\276)\307I<\272\260\266\274\363S\227\275.\254W;\216\241O=\374\325\302\274\020v8\275\375\024\010\276g\351\314=\231;\211<\006\345B<\300\rM\276:\016\025>\2360\230=!5G\276\211y\314\275D\021\r\276\212\307n\275\014\024\255=H\361\271\275\256\375\021\275yI\314\274<\037\212\272\337f|\275\342\271\222=\014\263n\276\360\311\232<\343\201U\274\032\207\000>\232d^<k\334`<\354\333\357<\016l\242\275\210\267\362\275\274\3454\276\376\272\034=!\253B=0\\6\275\354X\255\275\213\213$\275\331c%\276\353\220\256<\213\354d=\273\211:=G\236N\275o\'\332\275\304\224\n\2754\306\256\273\356\250\201\275\n\361r\275\241\031A\275\322\270\301\275\215\242\212<\337\201\222\275\035\333B=\333\035n=\225 \204\275\262\221\326<\r\246\022\275\364Me\2720\025\021=-\223\324\274O\007\004\275\265+W=\3113\274\275\t\001\350;\030Z0\275\267\322R=\364\363&\276\365\253\003\273\322\231\215<kv,\275\203\370\025=-\274B\274dZ\300\276\244~\206:\242\245\036\276c\030\232\273\016\307$\275\022\277\251=\355&\307=)\327(=\210\021\357\2747\230;\275\036\215\013\277\262]\331=\362c\342\273\247+\366;n!2\276L\2168>,\027\256=\337 \313<\322}c\276\027S\n>\020\254Y\274oZ\312\274@0\255;\221\007\315;\354\337}\276\034\no<o!\303\275\214\271\313<E\223\017\276\326\266@\275\021f\003\276"
      }
    }
  }
}
node {
  name: "f2"
  op: "Const"
  attr {
    key: "dtype"
    value {
      type: DT_FLOAT
    }
  }
  attr {
    key: "value"
    value {
      tensor {
        dtype: DT_FLOAT
        tensor_shape {
          dim {
            size: 1
          }
          dim {
            size: 1
          }
          dim {
            size: 56
          }
          dim {
            size: 12
          }
        }
        tensor_content: "_\243\310\276\221\316\371:\372\337\203>}\016\274>\220\245\261\275X\032\240\276\025\341\225\273\277\020\237>+\017\231=\2467\225\275\376\366\036\276\366\251\324=\255\250\220\275\214\034R>\332\273/\276\360\314\254>z{\230;\3116\215\275\3475\264=\260qW>R\331\230>\013i\223>\301\261\265>\241\032\373=Z5\213\275)\211t\275\236(\241>\177\rh\276X\017\001\2749\367\334=~r\000<o\341\205\276\202\213\232\275tH\326\276V\261\201\274\n[\013?\352\267F\275\006\272.\276\333r@>\005\273\263\275q_H=\347#\007>-\226v=lRx\275\026\372+\276\336\307\374\275\035\301\265\276%h\212>\264\352\245\274c\320\237\275\007\n\373\276\023\013E?\025\231\023<58%?\207\223\255\276L\203\276>;\022\032?Y\035\376>E\325\026\276\233gn\276\347\027F=\321W\250\275U\374\371=\244\033\r\276R\335\225\274]\004\037\276\223[Y>\254\337\024=m\217\361\276\201\307b>\325O_\275\366\303\275=\027\274\246>\0270\213\275\376\2479>#\004\023@\231\216\260;\237J\371>\033P\260=\374Si?\t\026\220\275\231\240\350=\266\303\022?\301\036\241?\360\037\342\274K\350\272\276;\026\201>\203\224\342\276\033\305\\; D\304\276\207q\213\275\362\024\321=\201\200\027>\001\343\000>\306Q\270>qz\227>k\t\213\276Y\030\376\275\224b\256\276K\307r\275\354\372@>\341\220,\277<\305\210\276\010~ \276}\306\007>\201t&\276\233\\h=L{I\277\213\357\232=b\0104=?\027\304\275a\310:>\013\2756\273\232HT\277\335y\003>T\326\021?-\005\372\275\207\350e\276\274\314\n?\373@\">\241\312\353=\033\323\340<\n\235B>]\202}=\362~\217\273\r|\211\276\021\274\214>CX\327;u\263\345<\334q\330>\255\"\347\275\030\254G\275g\365=>\364\3652\276\271\021\367\276\001\231\030?\353\217\351:Nn!>\\f\325\274I-\261\273E\020\302\274\200\251\255\2752\253\276>\357!%\277\222%\312=k4\233=\357G\017\277\365\325\375>W\322|\273\345\314\227>\210\300A\276q\254t=S\r\031>\265\336\003\274\335\215\340=\354D\033\277\rO\332\272h\370W>e%\344\275/#\266\274\231\246\t<\365\335\226\275\025D\312=\266,\275=v\215\201>\332K\203>\037\336\245>\354\236\321>h\311\233>\032+\274<\231\347\014\276.\277\023\275,\375\262>\301\035\322\275M^\251\275\305\252\224<\315\001\256\275P\323\312</Q4=j\206d=\241\250\277=\361q\005>\036\225\216> ^\227\275~\344\314\273\215e\227\276\340\355G>q\311\261=s\316#=gI\216>S3j\276\020\312\362>dec\276\024\243\212<\210\206\'\276\030\242S=2\357\323;\347]\312\275\222\n\216>\317\\\361>y\037\302=)\261Q>\227\000X\276\201Z\305>\232XS\277\277\332\320=\325\271\224>\277\315\237>\350&\277;19+<H$\230>\034:U>\006\266\316=p\302\000>#\304\322=\301\315\246\275\203\024\304=\216\242\n\275&\267\000>N:\034=\316\257\235>\245 \377=\275\010\235=\252\366f=\303V\315=\340V\033\274.\267\017\275\376\024\257\274)\226\206\275\337?\240<\204*\020\276\323\222\260\275\373O\010\27397\262\275N\000M=Wh\371=\271\355T\276\361K\264\276qM\342>}\375\214\276\336 \224>\002\350p\275\340\250a>\307P\230\2769\266\273;1\316\326=\340\276\264=0k\201\277\001+\230\276.)\355>\n\002\307\275l\314\223>_\204\344\275&\267-\277\307\354\022>oHK>\276i\345\272\010!\257\275\310\035_\276\205\302\020>\220=\027>\021\t;>\346\305\214>\247\216\002>\203\333\210\276\224Yc>\014\262J\275\345\277\372>w\246-\274\244\007\347\275>\347D\277:\332-\277=\263\321\275IQq=G\033\313>\231Z\277>5\251G\276p\240\253=\236me=\333\330\010\276\023\332z;$\347\363=\207\326\327>\020\306\256=\307\235\215>#\315\222\276JS{\275\316sB>\261\375G=\314\314\256\276\255Z\311=g\327\316>\206)\363\272\326m\020\276\300\332\323\2757\370\240\275\250\037\211>\300\004!>!B/\276\204hR\276X\036\032\275\357#\216=\257&\004\276e\2478?\272\246\336\273\365\207{>P\313\026\277)\340\376\276\007\010\361>\350!\275\276)X\343>\247\214\240>`\005\317\274\r#&\277_\302\231>\275Bl>\200\023\331\271x\201\310=5\037\000\276\323\004a=\211\232o>M\020\005;u4\213>\213\300f=9\205&\276a[i\2768Y\314>\266l\226<\312\030A\274\021\3644=\223\272\321=\006\315\207=\")\007>\2330\377\276\344\315\316\276\212\020e\275B\322{><\267\343=\203\375#\274\3669r\277;}f<\301\206M\275r[\327<\354\005P\276\024\356\354\275\r~\363=\210\3226>8\370\333=;X\231:\325\206\010\277\362\203J>mT\256=\234p\273;\023\324\232<E\021\021>%\232\346\276p\234S\277uO\302\275\336\207y?\364z\214=\351,\225=DT\023\275BL\377=%\214;?7\343F\275\010\253\227>\370\354\226=u\371\014?\033\203\261=\310\317\244=\002Q\352<\362\035\276=4Y\251=\016\223j\276\237\266\362=Mk\r?\334i\006\272y\355 >\252\316\303\276\350\330\037\277\364BE\276\307kd>\226\257\344>\267\353\267\275\366X\301=L.\362=\372\036l>\201i\232=O*\242;:5\235\274\242\273\315\275^\247f\276\347\351)\276=\222j\276Y\255\r>A\237\216>h&\021<\364\327\222\276\200v\324<\237\306\000?\314\344{\273\260\000\241\276\236\317[;\301f(\276\354XF>\233\030\003\277\350\033,>\247\311]\275\345`\035\2764t\014>\250P\210\276v\377l>\364a0<:\3102>On\271\275\367i\243>\327\010\021\277\203\346\000;\304\032\222\276\3402\022\276A\364\005>\207\332\205\275\300`\255\276\000\0248?\265\347\310;\302cx\2762\335d>Y\267\r\2772<\213=\335\037\177=\371f\211\275J\305\245\276E\033\037\276\016v\374=\204\346\322=\336\210\034>V\202\242<\221\304d\276\276\246/>\005\241\210\275V\240\361\2763G\257\276W\254\240\275\255\233\222\275N\216\215\275\355\204I=\330\356\320;\352g\241>D\234\025<\026e\214>\t\020\037=\213\257\263>\2361\226\275=\344\337=\251bU>\250\325\\>\315e\264=x\372\320<\226:T=\3157\340\276w[\020>\351\373\304\275\350^\301\274 f\226\275%\200J=\364\016\244\275<EZ\275\265\263\014=\261\004\203=n\372%\276ZW\223>\226\266*\276\221\212v;\243\031\034\276?\223E=\036\242\207\275\r\014\024>\360CE\276\312*\336=\234\304\025\277\270\"\376\275\362Z8\276\222q4>\022N\330>%Jp:%R\010<\334\306\024\276\232\276\320=Y\346\036=\246\022\267=\252[G\276\026!\312=\025D^=\253\303\350=\240\260&=\377\226^\276\303&\203;\310\310_>\305\007\303\275v\3261\273c9\"\274o<\310\275\205<\230> \207\252>\263O\020\276\212}\021\275+8)\276\260,|\276\tIw=\271\326\023\276WSS=W/\004\275C\331\017\276\270W\203\276\177P\226\276\027&\234>-\230\261=e\333\334=8\275\274=h\333\271\276\200\352\331<\216{\345\275\313\330n=+\003\006\274[[\310\275[\204\235\274\272\023F\2758i\343>\021\203\336=\035\224d>>\307P>\304\326\\>YC-<`\337\314\276\033\271\216=l\"\372<\242\014\300\276\270k\020\275|\354:\275\223\344\322>LG\023\276;\253\034?\205\334\036?M\317(\276\347\347\006\273;\016\200\276\022t\232\276B\260\022\277\333\332\032\277\203\354\301\276qqo>\034\031L?\221\321\320\275\223\304\343\273J\2309\276\201`\212\275\247\247\331<\230\236\274\275{\355*=h\\{<g\004\334=7\213\025>I\024U\276\362^\313>\353i\245=0q*\276?8\213\276\323\305\365<aK\321\273\210\2751=\307\'+\275\315(i\276\010\220\263\276\233[\342>\350\022\023=ycc\276\323\r\026>`\363\r\276\033W\360\276\241v\213\276\005\375\207\271\330\305\257>\305\311\213>\330\210a>\2015\270>Z\305<\276NG%\275\303\270:\277\034F\224>\223\256\210\276\036\013\030\275\'\027\226\275u\227}\275\367\264\373\275\233\233\005\275\264\357\237=Lr\265\276\265\010V\276\204U2\276\242\337\223\276\r5]<\023#\331\275\221V\201>j&;\276s\362u\275\317%\206>\324\376p\275\026#\027>D\005\003=\370\371S\276`\372v\274w\213->8pB\274[wC\275\3760\377>\234\371\r>\367.x\273Ct\345\276\253\377\256=g\232\357=\307e\276\275\020w\027\271\317jj\276\026d\311=\360Q\321\275\361`C<\000qt\2761L\204\277\\\313\020=\003\244\303\276\302\034m\275R\337\023>\370\013\217=\222#k\275\327\364\014=\361db\276\204P\211\274\304\357q\276\232\373M?\242\332\005?\372\326\332;\212\0326?\023P\212\276\034.\024\277\334mc\276\222\017\220\276\214\343K\276\262\373\007\276d-\207>\345M\360\275\\\306\'>\376\016\335\276:\244c=W\325\212>\030B\355\275D\3533\274q\376\233>(U\002\276\245\\>>y\203\006?BQ\037\275\036\317b>\240\025&>\275y\037\276\314\374\316\270C\235\225\275\007De>\350\317$<\214J7>\000\230\216\276C);\276R<\002\276"
      }
    }
  }
}
node {
  name: "f1"
  op: "Const"
  attr {
    key: "dtype"
    value {
      type: DT_FLOAT
    }
  }
  attr {
    key: "value"
    value {
      tensor {
        dtype: DT_FLOAT
        tensor_shape {
          dim {
            size: 5
          }
          dim {
            size: 5
          }
          dim {
            size: 1
          }
          dim {
            size: 56
          }
        }
