node {
  name: "NCHW_output/perm"
  op: "Const"
  attr {
    key: "dtype"
    value {
      type: DT_INT32
    }
  }
  attr {
    key: "value"
    value {
      tensor {
        dtype: DT_INT32
        tensor_shape {
          dim {
            size: 4
          }
        }
        tensor_content: "\000\000\000\000\003\000\000\000\001\000\000\000\002\000\000\000"
      }
    }
  }
}
node {
  name: "mul_13/y"
  op: "Const"
  attr {
    key: "dtype"
    value {
      type: DT_FLOAT
    }
  }
  attr {
    key: "value"
    value {
      tensor {
        dtype: DT_FLOAT
        tensor_shape {
        }
        float_val: 0.5
      }
    }
  }
}
node {
  name: "alpha7"
  op: "Const"
  attr {
    key: "dtype"
    value {
      type: DT_FLOAT
    }
  }
  attr {
    key: "value"
    value {
      tensor {
        dtype: DT_FLOAT
        tensor_shape {
          dim {
            size: 56
          }
        }
        tensor_content: "\371/y\274\'\315\270:\272\211#=\005%.\276\263\212\360\273`^\300:\340]\344=\306\216)\274\325`(\274&\250\276;\261>\276\275?\227\345>/\273J?;KF=\221Q\230<\336\346\351<\315\270\276=o\025\027;\247\350\272=p\364\005=\233\240]<Vg\'\274E\266E=\335\300n=\n\377\270\273\346\325\267\274$\211\215\274\244\264C9\374\363\002?p\332\220;\267\300\270;(\313\333\274\334z\351<\234\036\337\273\026\216\206\273O\005\345\271\027\221\007?}\243%>\255\007\233\274/\273\304<\363\356->K!\031\275\352\302\217;\236\200H\274\253 \342<\240C2\274\177\363\031<{\224\266\273\215\271G;\251\003\017\274\273D\n=\245\303\253\273\270\203i?\325l\213\275H\3735\273Y:\321="
      }
    }
  }
}
node {
  name: "mul_11/y"
  op: "Const"
  attr {
    key: "dtype"
    value {
      type: DT_FLOAT
    }
  }
  attr {
    key: "value"
    value {
      tensor {
        dtype: DT_FLOAT
        tensor_shape {
        }
        float_val: 0.5
      }
    }
  }
}
node {
  name: "alpha6"
  op: "Const"
  attr {
    key: "dtype"
    value {
      type: DT_FLOAT
    }
  }
  attr {
    key: "value"
    value {
      tensor {
        dtype: DT_FLOAT
        tensor_shape {
          dim {
            size: 12
          }
        }
        tensor_content: "\360\374\271>=\351$?x\236\243>F\252]?\254\2634?\321\251\004?\241q\335\275\275>a\276-\017\255=J}\303>\010\310\022?\350\231\346>"
      }
    }
  }
}
node {
  name: "mul_9/y"
  op: "Const"
  attr {
    key: "dtype"
    value {
      type: DT_FLOAT
    }
  }
  attr {
    key: "value"
    value {
      tensor {
        dtype: DT_FLOAT
        tensor_shape {
        }
        float_val: 0.5
      }
    }
  }
}
node {
  name: "alpha5"
  op: "Const"
  attr {
    key: "dtype"
    value {
      type: DT_FLOAT
    }
  }
  attr {
    key: "value"
    value {
      tensor {
        dtype: DT_FLOAT
        tensor_shape {
          dim {
            size: 12
          }
        }
        tensor_content: "2h\007?B3\354\276\216o\002>+c.?U1\231\276\255\250\001\277\3029\333>\264\350\203\276l\313o\276?c}\276I\222$?e\274\336="
      }
    }
  }
}
node {
  name: "mul_7/y"
  op: "Const"
  attr {
    key: "dtype"
    value {
      type: DT_FLOAT
    }
  }
  attr {
    key: "value"
    value {
      tensor {
        dtype: DT_FLOAT
        tensor_shape {
        }
        float_val: 0.5
      }
    }
  }
}
node {
  name: "alpha4"
  op: "Const"
  attr {
    key: "dtype"
    value {
      type: DT_FLOAT
    }
  }
  attr {
    key: "value"
    value {
      tensor {
        dtype: DT_FLOAT
        tensor_shape {
          dim {
            size: 12
          }
        }
        tensor_content: "&\205\232\276\016\305)>\360z~\274\017h\025>\265\306\211\276Y=\322\275\245\254\014?\341u\255>\376AF\276|t\354\275J\2620\275\244\273\206\276"
      }
    }
  }
}
node {
  name: "mul_5/y"
  op: "Const"
  attr {
    key: "dtype"
    value {
      type: DT_FLOAT
    }
  }
  attr {
    key: "value"
    value {
      tensor {
        dtype: DT_FLOAT
        tensor_shape {
        }
        float_val: 0.5
      }
    }
  }
}
node {
  name: "alpha3"
  op: "Const"
  attr {
    key: "dtype"
    value {
      type: DT_FLOAT
    }
  }
  attr {
    key: "value"
    value {
      tensor {
        dtype: DT_FLOAT
        tensor_shape {
          dim {
            size: 12
          }
        }
        tensor_content: "\317\311\371=2\377!\276mq\214\275:\274\021>\024\rJ>&\201\025\2752\032\324\274\026n,:\216\331\342=\370\326k\275\346\256m\273\240\242G?"
      }
    }
  }
}
node {
  name: "mul_3/y"
  op: "Const"
  attr {
    key: "dtype"
    value {
      type: DT_FLOAT
    }
  }
  attr {
    key: "value"
    value {
      tensor {
        dtype: DT_FLOAT
        tensor_shape {
        }
        float_val: 0.5
      }
    }
  }
}
node {
  name: "alpha2"
  op: "Const"
  attr {
    key: "dtype"
    value {
      type: DT_FLOAT
    }
  }
  attr {
    key: "value"
    value {
      tensor {
        dtype: DT_FLOAT
        tensor_shape {
          dim {
            size: 12
          }
        }
        tensor_content: " \246\207=\250\333 <\200u\037\273C\372\244=\276|\323<\347\361\324<\227q\235\274\226\\\022\275\253\177\220\275O\364F?X\375S\275\237\244\202\275"
      }
    }
  }
}
node {
  name: "mul_1/y"
  op: "Const"
  attr {
    key: "dtype"
    value {
      type: DT_FLOAT
    }
  }
  attr {
    key: "value"
    value {
      tensor {
        dtype: DT_FLOAT
        tensor_shape {
        }
        float_val: 0.5
      }
    }
  }
}
node {
  name: "alpha1"
  op: "Const"
  attr {
    key: "dtype"
    value {
      type: DT_FLOAT
    }
  }
  attr {
    key: "value"
    value {
      tensor {
        dtype: DT_FLOAT
        tensor_shape {
          dim {
            size: 56
          }
        }
        tensor_content: "f\203\341<\273\007\001<\244\262\006\275\035\025\202\275\357A\240\275h\234\r\275-i\t\275\337\347\236\275v\304n\275\031\347\247=\351\252\";\353l.\275\020*\246\274\'B\030<\332\311\224\274\375\\\306=\271\001\001=\003\037\207=\003\262\310\274\204s\364\275\276+\264\274\363\321\324\275\212\005\215\276\221\252c<\316\\\354\274q\236l\274\3042\017\275U\004\264<=o\335\275:\214\320=\213\\\232\272\353\210\225\276\347 -;U\377\377=*\230\315\275\316\032\367\273\226\3041\276\254#\372\275\t,\306\275\332`\033\275m80\275\301\274B\276||,\275\3155/<o\025 \276Z\243\034\276\\\032\027\276\323}\250;\350M\317=W\211\214\274\2115/=s\231\276\273\217\027\256\275\324\201e<\013\026\226?psP<"
      }
    }
  }
}
node {
  name: "b6"
  op: "Const"
  attr {
    key: "dtype"
    value {
      type: DT_FLOAT
    }
  }
  attr {
    key: "value"
    value {
      tensor {
        dtype: DT_FLOAT
        tensor_shape {
          dim {
            size: 12
          }
        }
        tensor_content: "\242\302\030;\302\310\005\276Pv\264\276\302\207^>\301\235\025\2765\253\361\274iRR\277\037\026\204=\354\007X=\327\n$<%\252\302>\272\364\303>"
      }
    }
  }
}
node {
  name: "f6"
  op: "Const"
  attr {
    key: "dtype"
    value {
      type: DT_FLOAT
    }
  }
  attr {
    key: "value"
    value {
      tensor {
        dtype: DT_FLOAT
        tensor_shape {
          dim {
            size: 3
          }
          dim {
            size: 3
          }
          dim {
            size: 12
          }
          dim {
            size: 12
          }
        }
        tensor_content: "\332\217r\277*Cd\275e<\255\276GWW\275\"\010!\276\332\334v\274)\342Z\277\232\217\r=\255\252\313>\331U\306\275\351H\220\275\242\025\312\275\265Fb\277W\031 \276\360\301>\276\r\240\250\275\305k\302\274\354\222\210\276bh\020\277_\360\\?\003ez\277\024\006\007?\226\371D\276*\251=\277*;\224\277\240M\000=\337O\357>\230\362\255<\252\337\274\276\"+\203=\313\335\230\277=\"\021?\241\013\221\277v\222\322>D\302\333<\343\3240>\021\353\265\276\362CT\276\267\352\257\276\256\341\001\275\037\233\346\275\323\r3\276+8\331=\312\226\031>\220_\022\277\305\001\221\276\030\r\362\275V.\021>\361\257\235>n\257\203>\377u3\277A;/<\210\034X\2760\376\300=\333\2063\277\233\331\036\277\337\324\332\277_D\031\275bw\340\273\266Q\023\2770\237\315>>\314y>\357G\316\276\014pY\274\346\226\224\276\374\007?>\363\206\316\2773*(\277\022\013\263\276\324\260\342\2757\016\241\276\302\252\316=|@\206?\362\333\022\276\273\232U>\010zg=U\341\217\275\202c\314\276x\014\203?\324f\021\300q\325\\\300\332\362\326\276\365.\032?;A2?\014n\275>nrV\276m\204\003?|hx\2753k\330<D\373{=l\345`>o!\346\2764\253x\277\364>R>M\377\332=\343\267j>3;\036>\237;\273=\220\252G?;\237\007\275=\254\201<\030\0005\276\023\246\"\2774y\017\277\347\211\256\277\312In>3\367\032\275|\007\311>\273\265\003>&/\033>E\361\313\276\377\023\314<\214\356\333=\261p\374\276\343\351\361\276+\t\030\276\332\024\364\277l\351\027>\312\312\017\277\261\357\244>\263i\036\277p\037\335<\021\0149\276\252\223\254\275,\311\321\275Pm\212=69r\276\024J==\027\242\236?\215\313&\276T\374\223=\230\252\311>\213\200r=u\212\035\276\246\036G\2750)t<\376\367\352<\345\227\371=\033G\246>\023\221,>m\005\366\275\252u\352\2755\351f>\324\001\236<\372\267q\276\266WU?\016W\022?#$/\276\300\363\354;\2449\367\275\274\231\261\277\305\225!\277\275\3756\277\316\341\367<\204*=\276\3123G?\271\320i\275\315\200\313=\367\246\332>.:\327\275\215\351\247\275xS\205\276y#\205>\\)\217\277\217\2108\3006\376\254>\272\372|>\257\210\213\275\316z\216>\177)\336=\t\022b?\203\226\203\275\001\347E\276\360\312\207\276p\363\032?\216_\264>IH\214\277\000\303K\276\264\261\215\276:(E>\245G$>8U\210>\314\026!>\177*\377\275 G\203>A1\213=\2161\005\300\313\315\214\277C\\\213\277z\305\204>\205\202\244>X\177\302\275\313\273R>v\353\010>\331q=\277\213\"\352=\264\203\210\275\243Q(>!E\226\277r\332\216\27673\253\277\"P\001?\016\306\324\275\037\016\323=\032\177\035>\372\212m>7\340=\277\026_G\276\205\377\006\276G\3030\276!\2512\300\237\341T>\350\th>e\360\374>\215\306\020\277.\027_\276Fs*>v\370\215\2760(O\276\361\363\227\275\023\251\214>P/\207>ca\325\277gX\320\275{\247G?\016K\n\277\247\316\342\2764#\343\276\307\n\314=\303\031!\276\207r\n\276\037\304\223=V,\017\276|\023\310>\214\036\243\277\235\353l\277\212\023]?\036\3207\277\242\232\231>Xf\366>.\264\200>\362\230.\276)\014\200?\321\367}=\271)\006\276\026pd\276\315\273\322=\243\247R\277p\204\372>\026\r\007\277\327\200\033\276j27?\235\177x\276\263\304p\276\237Y\263>\'\004\232=!r\335=\251F\242\275\316\204v\277\367\262G\276P\343\024?\306\013\262\275\007Hc\275l(\007\276{\204\301>\317\200\213?e\316\305>\324\034\370\276\230e-?\205\021\010\277\225LR\277X*n>\033\370\022\277\037\255\237>v\211B\277\237\251\215\275\261\003\372\274\253\2011\275\016\261\347\276I\312\276<\255i|\2730]\023=\311\246\007\277\274\034\362\276\305yy?\276\0166\275A\3707>\270/\005=n\342\224\276~\205T\276\241G\202\277\315U\033>\031\217\363=\364\354&\274%Ap\277\314\255\200?\267\277\261\277\002Z\033?\336\372p\277\201;\016?aQ\271\276\253\n\212\276\320\026\024>\375\277\357\273\307\340w\273P\267(\276\243\023$\277-\030\324\276Q\361\375\277\300\256q>\363}`<\024,\222>\372~\202>\220\332\332>\242]D?\267\201\213\274\364\222\324\276\265+\237>*\243\375\275\255\327\274\275$\213\324>\307D;\277\343\275\033>\"\034\033\277&\335\036>;\200\212\276\354\374\022?\260<\221\274\014\225!\275\255\277\313\274\325&\236?\023\205\032\275\351\200Z?\270\344\203\276\311\000\255\276x)\315\276\023S\206\275\350\355\230\274\315&\253\276\007hA=\254\272\267<\355\322\354=\'ag=\327e\277;\326gf\277\\)\006>JL\230\274\236\367\312\274V\304\300>\242\376\022?\314\3773?\271\374\240\275\335\246E\2764j\344\276\266V\376>$\363\232\277Z\332\230>\222\265Y\277h\223\200>\263\355(\277\316X\001>\326\246\367=&\377\206>\362\007\231\275\023\345\261\276a!\246><\244L\277\233\261\243\276\244\331\270\276\002^\030\277\272\002\242>\304\307\212\276\010M\017>\353\232\324=0\312R\277#|\252\274\'\261\r\276\262K\217>7\264{\2775m\t?\334\352I\277\235e\016?\200\266y>(\001j\275V\315\214\276\313k\346\276\030/\r?\233Z\277=\232\306\001\276\212CH\276\204\303\230\277x\205\n\277\321L\203\275\257\266\350=*z\340<U/\202?$\367\307=\347\337\"\274h\017 ?\247\002%=9\t\317>\342\314\033\277\241<K?\227p\246\277s\331\321\277m\311\024\276?\"\216\276\251\313\215\275\215\221\210>Kwr=c\272\013?\345\\+\275\345!S\276\000\276\363=m S?\363\252\353\274\002\002E\276N\321\020\277\037\334>\276Q\267\340\276t\342\r>\330pW\276\003{\032\276 \265\206\275\324\017\212=\"Dt\274\263\032\033?q[\226<\023\217!\277XLX>\357n\013\276\370B\251\276Gid>\017RR=\250\356\341>[\221\266\275\346-1>J\244L>\347\"!\277-\2417\277\274:\242\277s\353\304\275\001x\177=\3416E>PC\031?\263\241>>\026\217\033?*\001\n\276\316\230]\276\t\036g?\233/\371>\200\021X\277\276E;\300\263\304!?\324\r\205>\027\372\030?\002\222\300\276%\3113\276[\035\247<\252L\260\275f\2415\275\003\254\231>\264\361c\277\274\336\r\277M\200+>\237tK?4\036\027\276\322\316\313\275\211\243\255\276\311\245\220\276\270F\226\276\240\310O\275\3004\017>\320c\025\276\303z\354=\311fE>6\255\373\277\016\200\300\276\311\344\317\276|\273L\277U.\237\275.\250\022\276\200\202\016?\360\323!\276\016\202h\275\'9\226>\240\222(\300e\371Y?D\004#@\263\237\020=x\314\033\276\016\272\244\276~Q\224>\215\224\244>US\222\275\253\207\t>.!\023\276\275F\004>g\204\347\277{}\274\276\203\036\005\300$.\276\276W\261\314<\353\323\231\276\362\264\253>\220\254\003?\340y\223\276\354\000\360>\2513W\277H\305\026\300\351wt?#\240\224?a\270\277\300\324\343\320\277\021\002\022?\235\030{?\234\226\036\277\002\010\337\276\3541\221\277v\301E=\204+\300=\342\312)\277\267\253O>\020\213y\277\'\240\205\300\301\344e\2765^\246>#%\304\276\003\333\016\277D\232\337\276\361\302\346>\237\344\306<I\251(>o\313\010\277\205d\306>5)\302\276\362?e\300\230O\320=C\316\342=u\3206?\027\304\200>t\241\223\275\222\257_?n\331\300\275<\022\351\275@n\241=\304.\013\300W\326p\277\311\322\033@\350\'6\276c\366\024\277\216\004(?\250y\361>v\\|<\264\005\206>\034y \276\342z/\273ba\271>\025\226\035\276\236\343\005\277\227\001a?\232l#?c\312=\275\261>%\276\260\252\201\277\224\321\251>\225\374\020\277\330\371k\274\271\347;=\271ZN\275\223\201\352\276\236o\005?q\205\217\277:\004\005\276\'~\262\274d\\\201=)\\a?\307rZ\277td\333>\361\360F\276z.l?\331m\333=\2034=?-\332s=\222\002$\2777\332\t>\336\255\222\276\221A8\277wxC?\037|s\276sL\223\275_\332\007=z\305;\276\257\301}\276\265\267\264\277\312\337\227=|\352\362\277|v\327>X\274\215>\247\233\242>\360\001\334\276z\023l\277S\313\310\277\340n\301\2752]\032?;\363\030\277\306A\260\277\360\225O\300\261\237L=5~\250\277\001uT\277\317\036\212\276io\024?\244\306\313=\225\236z>D\222\227\276\344P\323>2\021\022\277\376M=\277\321V\206\277\237\376\265?\373\225\203?y\300\304\2741\307\245\277>;i\276\244QL>=.&?\234\304\263\274\343\3209\276C.\224\276\274\'*@\204\3113\277\267b\325\277\220C\016>\025\264\221>=\376\233\276\257\352\241>\r\337:<\t\224n\275\271r\004\276\324\024\203\276\317\216\021?\250\217\233\276[(\254\277p\3605?\\\323\032>h\021\220\276h\337\234>\\\257\223\277\016S\277>\006`\356\275Cop\276\311\373\034?\300\317\237\276\221\323\326>%\024\357\276\327\363\r=\tl\245\276:\334\'\2773e>?\274\016\225\277\222\035\002\300\332C\302\277\021\271\237>\323\266b?Q\005\227\277.\221\304\277\343\357s\300\267N\026\275f%\240\277\037\\\213\277VZ\224\277\301\2505\277\211\206\031\277x\000U>\377:\232=\020\263\203>\327\320Y\276#i\330>\274\207\260?\224N\236?t\3150\276\265\2631\277\350\3236\276\212k\320>*f(?\3034\022>7\236\236\275\331\026\233\276\233\373\326\276X<\261\277\352\306\322\277RRI?\215\212\251>\315nT\276\034\022b?\207\241\002\277\346\357H\277\220\243s\276\345\302)\300\351[\222\276\nXN>i9G?5\203\327\277\237X\021\277\235}\025\277\245\006&>\322<.\276j\003v>ExV?H\324\232=\314\315\306\275\241\3378?!TB\277\322\203\t\2773k\334>\010M\345>\226\343F?1\004L\277|\255\323\276\270\001t\2767\376\346\277!\033\236?\214m\254>\230k*\277\234b\235?\035\323\312\276\231\227\335?^\314\004\277D@\335>Ot\373\277\010\022+\277HJ\177\276\240{\253;\347\234\237\275\311R5\274\035\244\370<\341\371a\275\204\273*\277@~\366\276\277\035\307\277\237\255I>rx\024\276J\234\335>#\251\000?\240^\241>S\377w\277\337\211L\275y\202\255<\307.\256\275\305\201\305\276\022\336M\277Dc\357>:X\023\277\346\253\027>\371\331X\277\321QF\277*\252!\274&D\'?\367S\324\275\021\242\242\275\225{T=TL|\276\024\310\222\276\351K\363\276\027\034\013?\322\023I?~z\362=)\321:\277\023\246\201\276\352\340\221\276 w\204=\265&\325=7\310\312\275U\004|?\366\370\006?\333\332\224\277\346\313L>?\345\346\275|\334\'\275h@\024?\256\2538\274\2674\004\277\316\2767\276\233LB\276\2363\275\276\'6\017\300\221\376\354\276:\025S\276\272-\320\276\370\334i>\211\235\231>\207J9>\351\342\232>\017\263P\276EN\262\275\332d\036>\325\372(>\242V\350\277!\315\013\277*#7\276\215&\236\275`\304\377=k\251\014=\030\250 >\233\204\022\277\365\224R\276\321\370\004>\352\262\026\275\261\277\351>\355\367)?\366\3017>\346\352\246\277\3254V?\\w\323\276\037\312\262\277\t\271\351=\320>\324>\277\204\274>\355\245;\275\342\335\214\276\323\006\321\275\232V7\277+\204\013\300\037*\032\277\014\257\252=\315\224\234>_\257\000?\336f\252\276\360\234*=ok<>?\340\301\275\251\332\272>\332M\313\27637%\277\360\370\212\275^;\313\277\202t\t\277\253\2052>\0324{?\353\002\257=\340\264\">\347\332.\277\314o\264\276\312AK>\354\222\205\276X\013@\277\373\345\300\276h\342\n>\217\334\177<\262\277r?\3052\003?o\027\302>\037P\211\275\344\331M?p\370\257\275\374\0269\276K\320\207>\345:\200?B\254R\276\353\3256\2761\270\262\276\322:\266>\3401\\\277o\273\334\276c[]\276\232K\353\276\211\255C\275\373\371\216<\177\215\316\276\267rY?\222\213`>\342\311\202?$\204\361=\332B\250\276\233\362\221\275\216`\022\2751n\'\276=\210r\276\027\254l\274\335\333\236\276\217\201\202\276\247\211\220\277\340\231:\277\277\030\370\277\303\275\372>\260\364\330>2\213\331\276\371\321^=\253H\005=\213\375\316\277\375 \360\273ae\034=\023d\360>\373\302\230?\262\262\345\274\253T\202\276\025\204\004?\230\366\307\275\026\207\207\277I\376\013>R\2067>\033\315\177?~o\317=\004a\027\277AL/\276\236z?\300\003\331k\276i\013\004@\200T\276\277\000r\275>\246j\243\277\374\244\360>\350 B=\247P\215\277z\253j\275\016\316\337=I\266%?\033\304\340?;\245\342\276\nk\031?y\326\\?aO\255\276U\273\017?\"+\366=\0069\207>s\212\345\276\230\310\030=\030\212\304\275\270/\375=\301\224\250\277M8S\277\356\267\264\277\0019\306\274}\206\331=\371>\202\276\215Kv\275>\351\001\277,\252\201\276\014Q\372<\341\013\277>\254\236\373\276)[\330\276\03334>:s\n\300v>P\277\315\007\377==M\230\277\n(\351>\262\337\370>\237M\253>\036\277\225\274\242\231\317\276+y\036?\023\307\027\300\230\214\244\276\205\233\333\277\303\"W\276\254\342\244>\302\2030\277\336_\231\276!aG\277r!r?\010\nS\275\305\377\025>\332\266\262\276\004\226\222\276\035~\226\277w6U\277u\336\177>\272\233K=\321vf?Y\240\001\277M\330\345=B}\016>\222\377\001>\313>I\276\362\214\363=\214\252\022\300\223\240,\277b\342\256\300\245\266\231\276a0\357<w%B?\177\002.\275!P\344\275\326M\010\277\363\330\200\275{u\013\273\252\033\331\276,\205\014?\302\222\356\275Y\277\221=r\220\240>\253;\r\277\352\326B>\010\223\375>\201?\243\2743\336\027\277\320\350F=6 \207=\350\210T\2753B\177?z\340G?\216\001_?\265\275?=\353\342_\2760SJ\275k4(\277\375\225L\275\245=A\2749\262\232<w\001\262\275\010\266}>\243\277\252>\231y\355>@\177\255>\332)E\277\326\264p<\316d\341>!O\370\276\257\340\177=E\n$\276a5\217<\215\366\200\276\321\302\300\275\325\331\371\276\177\302\007\277h\r\023\300tV\337>\257Z\346=\014\270(\276[\245\321\276D!\177\277\365e\323\277\010z\340;\272\3613?\325[t\277\\C,>j\026\025\300\371q\017\276Z33\277*QJ\277Fz\356\275k_\'?D?e?\305\373O?\310K\001?\334\204\346\277\264U\335\277\203L@?\322\177]>\201\016\237?w\007G?\347$\264\277m\336>\277X\002\222>\033\027v\276\344\356\256\276\255\007\310\275V\217\000>^\214\240\276\004\254L\277\\\3336?\250\245\324\277\345/\336\276*\237\324>{\244+\276\272z\350=\275\327\255>0`\220\276\241\374\006\274\035Je\276M\244{>\217\001\276\277\\\264\036\277\211,\353>\370\177\262\276JU\217\274\315\322q\276\254\270\373> 9\232\276\261\302\372\276\275\330\227\275\352\025\251>\033\340\256>\372\231\223\275\367\027\031\277\347\'\230?SZ,\276\3516\365\274a$\177\276\005\307\267\2756K\010>\261\330\001\275m\223\377=\000c\246\276\344\213\372\276\212\206I\300\202[\363\277\017L\241\276M\321\357\276x\303\022\277,\354f\276\244\347g\277K\r\010\277U\324\002?\275\240I\276[;\022?\323{f>t\322\222>i\333J\277\314{\356={ \013\276\354@\323\276\036:\255?\016\274\006?}\347L\274\346:9?\322\204\030>\005.`\276\375\212\204\274\356\273\221\277+\266\007\277\241\333\353\277\035xs\276\034\257\005\276_\377\315\274|\r\263=\224\202s\2765\256k\276o\316\005\27774\026?~c\202?\3631\357\276V\314\375=:\024\374\276\342\253\200\276\224}2?Bw\351>\322O\323\276\t\251 \277\251\351=\277\240\347m\275\330\233 \277A$\005?\006\360\302=\377\303\370\277r\247\005@\022\311\276\276\252\317/\277v\225\255\276L\221\225\277Kz\236>\224$\222\276\244\312\013>\0030;\275\343U\313>8\\8?\302T-\277\304\2059\300\235\031\374>\001`\241\276G\037\016=\300\200^\275\rq\020\2752\352\n>\221\252\217\275\351\305\234\275\254z\356=\031\313\201\277\246\320\036\277w\036\315\277 \356K=\010\311\031\275D@H=:U\210\276(~\016\277\251\231\275={\377\227<R\241\254>G\365\336\276C#\'\277\222E\217\276\366\177\024?\360T\337=U\236\341>\336|\027>\367O\265\277q)\016?\366s\260>/t\253=\221d\374\276O[\351>\343b\253\277\254\001\323\277\204\026\004\277\205$Z>q\362\201\276\327>\255>\255\337\237=\266\362\305>\230\357a\277\245\347\260<\324D\250\276/eB>\346\217v\277E\350\312\276\246c\234\277t(3\276Zt\203\276\006\365\234\275\246Z4>\000\314$>\2734\'\277\201z*\275\236\020\226\276\205)\227>\021\032\257\277\260V\360\276\225\320\204\277]\271\321\276\213\027/\276t\313O\276\020\266$?\2536\016\277\034c\036\276\223u\307\274q+X>\340\312\025\277\274_\213?\371\265R>\270\024\004>\005n\377>\3671&>\007\366\233<X\006\023\275\274\273\035?\035\2271\276^\2704\275U\r\036\277\020\031\352>hp\344\277\306 A\277\016mh\277a\302\270>\304\245.>\316\276|\275#\247\365>\225\346v\277\352\260\355>?@\301<\300]\327>\272\335\214\277}\300z?\274\036 \276X\366y\276\024u\335>U\254\004?\376\0013?\367\304\356=\214\360\245\274V\275\032?\275\"\275=>)a\276)\362\353>\231\244!\300L4@\277\317\367\204\277\341h.\277\375a\327\275\321\027\265>\010\240\240>[\266\260\276\354ic>\327\241\215\275\237\225\017>*\003\215\276\014A[?J<\223\272.\333R>\3043^>g\347->\027\027\"\2762\247\256\276\353\206\016?\203\246\302?\341%?<\370d+\277\373\002\013>O\033\232>2\276\356\276\301:\220\277\333\247\"?\371\223t?\317\212->"
      }
    }
  }
}
node {
  name: "b5"
  op: "Const"
  attr {
    key: "dtype"
    value {
      type: DT_FLOAT
    }
  }
  attr {
    key: "value"
    value {
      tensor {
        dtype: DT_FLOAT
        tensor_shape {
          dim {
            size: 12
          }
        }
        tensor_content: "\321\376W:5J\273\274\213+l=3\370\016=\336\021\234\273\035\007\235\274$O\211=\251\030r>g(\233\276j\354\275\274\332\353\344<\000_?>"
      }
    }
  }
}
node {
  name: "f5"
  op: "Const"
  attr {
    key: "dtype"
    value {
      type: DT_FLOAT
    }
  }
  attr {
    key: "value"
    value {
      tensor {
        dtype: DT_FLOAT
        tensor_shape {
          dim {
            size: 3
          }
          dim {
            size: 3
          }
          dim {
            size: 12
          }
          dim {
            size: 12
          }
        }
        tensor_content: "<g\026\276{S\235=\271\246,=\367\254\003>(\222\317>\350\362\024>y\027\226\275\240\231\031\276\005O\263\276\201\346\374=\232\320\223<\216\323<\276\363\237\307=\245\312\r\276\327)c=\343\005\320\275\343M)\275\261%\335>\0331\017\276\206\366^\276\031]\231\276\\3\244>\330<\332=[@=>\341\277\257<\264\006\327>\'D\203=\347\225\356\274\'C\312\275\337\350;\275\261N\316=~J\225>\373\024&>\002@\275\276\310rG\275\227\352:\277\221\217V>\306\2268\276Z\336\200\276\007\300*\275\240t}\277\210\3531\277A\"?\2767U\223\273\346\210\027?\312\277R\277\235\n3=Z&\226>\363J\020>8\037\341\276?\361\345=\334z\255\275F\356\t;3s\343>%X\236\275\221:\320\275x\007\375\275\346\376d?\034\327\320;N\347\316=\247u3\275\222\364(?a\002\200?\306\261\305>\236\3512? 9\212?N\200\177\276\010F\200\276\211\030(>\304V\017\277^\314\250=P\017T\300,\2169\276\213\016O\275\226(\342=QD\376\275\357\222\366=\337\377\267>X\3538\274\3721\034\275\026\352\344\275(`U\276\303\326^\273\\;z?\317\322\010\276~~\214\277\235v\224>\301\311\261\274\013?\220?\332\212\244>S\255\204\276\232\361\016\276\n}6\275\000\020\357\275*?\227=Ye\244?\020\nb>\021\377\300\276\327\227\212<\244\017\363<\006\210\313>\235\244\320>&D#>L\n\021\2765\014!\276\021C\267\276\204X\013\275\267\030l\277\303\274\322;\2628\306>\313\352\223>\0166^>.W\033\277\243:\220\276\373\031X\275\255$\005\276\271s\004?\034\366\265\276\365Z\324;\t\211\332\2776A\311\275z\t\036>\033\371\247>=\354v>\332B\202\276+\331*\277\361\316E\276tG\314<\216\021@\276\024\363m=\007\252\002>\372\277\323\300\235\211\252\276\243\312i>\305\2051\276\033]E>5\263\352\276\323\\5\277>\346i\276I#\235\276\030M\332>\007.f\276\321\324,\275\207d\\?\317\335d\276\242\207\037\276\324\203{\277\243\234\262<7\313\006?\010\200\020?\316c7\276\330\276\347\274\250%(\277\301\253\t\2763a@\274\261\000\370\277\313\346M>V\315]>K\017\334>\177\"\230>\003\211\350\276\266\315\274>\261C\224>\205\236\200>\267\305\237>\251\023\234\274f28\274\327\340!\276\345\217\247\275\371\310\207>\242~\361\275\246\206\032={\204x\276\223\246&>\221\274\027=k\362\034>\335\022\315=\000\027(\276\304\271(\275N[5>\363o\260\276*\352\353=\266\374C\277\335\275\265>\310\247\t>|W1\277\234n\r\276\'\007\251\274\253Q\306\276\240\317,\277\303\237D=\373\331U?\375\260\013=\177U\263\276}\177\210\300Z\245\324<\276\255m?\214\376\321>E\\\001\277<\3155\3007\330j?\003N\017?\257Y\006;\277\\a\300N?\263\276\031\266\035\277\017\276\201?\205\370\254=\312\243c>0\034\034?\353X\034\275,\213\304=\242\267K\277\240\017\202\276\2024\341\274S\305\276\300\340z\327>T\306\003>R\3444\275\363\357\250\277\014\356\003\277\0137w>d\311\271>\006\254\203\275\037\237r\277-\270\020?^9\241=\025\250\243?\003\205\304\274x\263\301\276\362\227@\277\304\321\260\276\236r\202\277/\324\365>E\367%>\361)\262>a\005\233\276\342\376\276\276a\007\271=\271\223\255?\376\344\233=\304d\200\275\001\230\207>\342\370\006\275A\227\237>\272\020\014?\332\302\245>\230\247\314>#\\\300\276-\305\321\276\270\246\266\275\352\352O\277\360}\023\275\367K\221\275\350\200C>\223\313\301>\350z\377>iT\275\275\330b\276>\246\231q\274\256\244B?\323\356\222\276E\251\010=\274ki\277DuH>\311]\373>M\006z?\361;3\276\"@\352\276\216\315N<s76>(\001\025?\n\236\333\274\334Pi\276\207_\205\275\261)\216\277\217\302\243\275\223\314\332>\r.\220\276L\036p\2757\262=\277\227\"5=Z]\002\275A\235\353=\276&\026\276\305\014\262\276L\220<\275\035`\014\300,\202\247\274\273\341o\2762\305&\277^\016\364=\252\025y\277\220\277\224\276\345v\343\276#f\204=C\343\305=\2621\000\2761\023\036=Z\226\260\276\307>F\275\334\346\254\274\330\310\306\275\001~v=%\001\223\276\337|\033>\003\3667\275[\240+\276+Hz>oV\226\275t\032W=\256\370c\277)M\020\274<N:>\325\324\t\275\257\215\240=B\306\016>\261\227\212\275\332\321\203\275\2742\005\276\240Z\247<l\3350=),\341\274\243\304\002\277\220\241\021<\350\323a\274\254l%?\240!\346=\027\037\257\2776\250\222\277\364\037\252=\315\271\276\276\360u-<\235x\365\276\'_\r=\253M\253=K\215 >\007f\026?\321\363\247:\235\370r\275\200jq\277,\016\260\276f\346\211=j)3=\276[_?\301\236m?r\364\223\275B\311\321\277O\273\016>VD\261>\337\317\304>W\027\361\275\021)\250?_\333\027?\334N\031\277\277\265\206\276\305\005\206\277\362\335\351\276\242QY=l2\253\277\244z\375=\367\227\014\274e42>\210\300\274\276\227\357\035>T\010\354\275\311-\036\276Pd\216\275\002\r\353\276\'3\346>`\250\330=\024\016\303<\230r\036\276D\366s>\031h\275>\324a\030\275R\247\322\277\213\301\000\276\206\254\010\275\356\212\001\276#\245\231>t8\202\276\3036\277=\226\"\255>\370\3524\274Vg\272\2761\254\014\274\300\006\025\274\206\0011<w-2?\313%\002>\345@\005>\377t\200\276\250\276\216\276\235{\263\274_\267\341\277\366\367\370\275\243\272\231\275\330\2032?=7@>6\226~?\000\261\357><<\037?\272\022\237>\364fh??\037\022?!v\225</\037%\277\343\331\234\271V\374[?\264y\034?;v\327;W\220\221\277*\340\265=\347\273N\276!\242m=#\315\203\275\374\237\267>\201L\335\274\210\301\020\275\002\371{=V\ns>w@\003?\0225\031\275\242\"\202\277i\365\257\275\304\001^\274\312\314\'\275.J\337\276\246\227\036\276\247\315s\2741f\271\276P\213\211>\320MN>\217@\037>\340\332h\275\311\245n>\234\004\275>\256\345\202\275\314\236\220=0\244\003?\306\360\214\275\356\317l\275\310\370I>\363\250E=_\235\306\276\350\025\355\274\375d\315;R\223\027?p\017\360>\250I-\275\306Ma>\306\375\375\274\203n\255>\262\205]\275\230A)\276\343\375\360\275\262\337\331>\350:\251\274V\206\257<:\367\245>cqQ\276\373c$>\234\036b>\377\270+\276w`\260;P\370\262\274L:\215>\025\361\343\275\242\321\273\274\177X\013\276o\362\312=\024>3?R\203,?\335\305\001=\003\0138=\003\344\267=\334\240\267>\320c&;\2762O?\206\333\266>%\017#>>\354`\276\0066\277=\035.\306\276%\340\243\274\251\211\375=\240\002\304:\256\017\336=\026VP?\261kY\275\205\355\243\275\264=\000>\226\366\330\275\232\332v>r\000\240:\371:\010?c\236\026?z\276\217=Gx\207\276\034\254\351\276\367<\036\276\250L\033\274\335U\262\277\260\017\223\277y\313v>Z)\225>+\020\273>\033X8>e\215\210\276\231\2525<\033\247)\277\226\365\251\277\347\256\032?\362t\003;hc\002\277\307m\024\275\244\354\234\2776dy\276\253g\340\275\343\177\321?\322\022\t?\\\362i\276\343w\024>t\'\007\277Dj\260\276A\030\r=/.\354?5\216Y\276(\254\013\276\300\353\301=F$\001>\004*8?\374\223\354\273\307n\341=\323\3447>\363\224\331\276\231\307\205\276Yhg\2752\213\001>\366 \350>\013%*?\306}\016>O\357\227\2765\035\361\274U\255\273>f\355P\276-\335\t\277V.~>\177.@?\244~\034=\334\371\031\277,7\207>j\017\204>\003\366\243>v\260\030>H\'\221>H\324\002\277w65>\211\232\235>N\201E\277\346\265G\276\337G\310\273\263\022\024\300\024\200\252>\311\220)\277\367E(\276\261\207\007\276\366\355\257>\021\315\202?*\r:\275\214<\202\2774<\221\276\320a\014\276J\330C<\025\252P\276\205\302\260\275q\333\227>\355\327\017\300\250#\232=\261\226;?078?_w(\2757\343J\276\000*\303=\221\004\206>qA\235\275p\005$>6\217T\273\274g`?h\343p\277\326[4\277\324Sh\276m{\031>E\326\327>]\257\350?EK4\277\233\215\002?\014\017\242<\371\250\227?7\246\023\276\205i\223=;\233\034>\211/n\274`\031y\277 \243\031\277\311\030D\276\347\357\004>\305\024=>\235i\233\275\2173\344=\027;t?p\207\375=\217#\321>\201\200\236<}\371\217\276\245\201\251?85f?\311M\227>\352\270\213\277\010\307\200;\247\2769>\243|k=\307\032\214\276\017\032\211\275\201/C?\251E\257\277cn\036=\344\004K=\322\273\224\276\351\356\236\276\254\362\365\276\266$(?LU\301;x\265\216=P*w=\"P\322>b\330\305\276`Sc\277\037\234>\276\370Tv\276\266\363\361>\226A8\277F\n\270\276#/E\277\036\302\245\276\320\233\315\275t\316\001\276$e\032?{\335\300?s\235\325\277\324\356/?\245$\263?q\325\250?\317\350\213?\005\254\265?\343\242\223?\247#t\277\364L8\300F\272\230\277\270\333\010\275\200\276p?T\226\007?!AX>]X\333>\235\267F>\233z\216>\244\264M\276C\276\263>\346No?w\\M<3\273\302\277\205\307\344=NP1\277\235f\233>\330o\202<\"L\244=F\254\330\2766\324\n=\'\310B?\250@\316\276\366\367\003\277?%\265<\217\265\243?`\316\257>\376<==o\230\207\277U\212\240>\\\226\177\277\010\363\034\275\300+\276\274j\270\365\276\":\366\276o\250\247\274\004w\217=\312\246\027\277?\276\264\276\306\247\215>\252\177u=^\212\311\275~\'\245\275\322[\003?\224&\"?\343G\356>\020\002\025\277fMn>8\255\313\275Z\254\267?\277N\332\275\226\322\202\277\335\2718\277O.Q\275\223\364\026\277\205\037\224>\360+3\277O_#?<\020\027\277\370\254\315\276\372o\303=\312\346\016\276k\312\216\276K\242\310\277\364\2339\277T\253\266\275\222\016\271\277e\315\030?-\274\'\276\324\306\335\277\031PJ>^\215\322>\333\302\330\274\353n\244\276Ed(\275\304g$\277\265\345\214>\030\300\364\274#R\031=\037\002\231=#\202\200\275\t\276\347<\356\014\360\276\363\002\340=\331\2201=\254\341B\277\017\205\237=J+\335>d\227\333\276#6\374=E\2461\276S\221\314\276\251\243\\\276=\206\216>\317u\300>\312j\376\275\354\374\205<9(2\275b\242\177>\316\220F>\270\031\335\275\347\252i=Y\333{\275\2141\002\276\250\244\330<\202,\320\276\347Y\271?\016=&?\375]\010=\371\321W\276j\301\013\276\266\036\014\277(\001\022\276_\365\023>X\313/=`\363h>\266\020\306=\013\275_>P\032V\275\341Y\370>\020\326\246\275<K\306\276H\270\222\275\340\310G=\\\r\377>\257f\307\275\274\311\355\275\031\335\300>\305M+\276\365rS>\305\035C\277\306\247a\277\245\2001\275\220)A\276\003zJ=K\305\344\277\357y\332>\214\001\353={d\311\277\356id>\204F\250\277$$\311\275j\371/?\036VV\276\260\376\371<\250\327\025>5\032\t\276\271>>>\302\034\245>\356\334\226>\271U\034\277\273\324j?\035\372\005>\262\025\241=\374\005\006\276U\033\214>\036\'\316=\343\013\014\277\365\303\022>\265N\242\276n\\X>\362\377a</\317\205\274\3447\346>\224\376\376;\272T\204>\037\277\020\277G\226\013\277\224\212\013\275\306v\002?@\300!>\363\324\014\276\342;\322=q\0322\276\364fr\277\\\377`\277\271\210\005>*\315=\275r\226\332?\322\003\355\276\221\037\021\276\000lT>H\250\266<\005=\247=4\3563?\300Bi\275\037\376\001?\236,\206\276o\2405?\265\214\231<\213-\270\276rO\375<d\235\300=\352v\021?\275{\313\274\2038\243\276\016\353N<\256\275\024=\307\203F\277\3726j\276F\206\322;\372~K>\024\033\004\276)\3100\274\305X\235<\206\324\307>pA\274<B\3625>w\313\364\274\366\206?\2755<!\276\33694\277\327\377G<\373X^\276V\300\210\274\260\374\253=\366\203\001=t\246F\276\010\t\317=\321\207\026\277\004\257\252\274\270\220\034=C\n\267<\022\326\035\277\025\276\005>p\342%=\264\264\033\275\257I\357>\002Al\273\014\025\027?\372$\303:\226\211\252;\214\362\262\275\005t8<|\312\257=\020\n\032>bM\007>Pd\222\275\275\345\225\274\000Q\224\275\205\232\213\275\372\034z\276\334>\007\275&\023B>*\322(>\0228\n\275\005\014a\277\222;\225\2768FO\275\001\010-\273\340:U\276t\263P>\234a\017=\327\030\265>\215\261l=\r\321->\252\273\002=\031\346\307=\3619\030\275C\364x\277J\225\326\274\344-{\274\212w\010=\0315\031\276h\252\265<\3571\335\275\300n\232<]\351\313\275<\242L\276\211y\273=\357,a?&O\320>+Z(\276\323G\266\275\025v\215\277\n@\000\276\326BY\275%\253\030\277[\350\377\276\205\035\317>\306\276\364=*\261\027\275c\001&\276q\033e\273\010\317}=\n\023\245<\317\\\315>\257\254\363\276\374ET=\031\001\203\276)`\005\277=k\362\2766\215\317\276\2053\262<\020\275\323>nE \300\217\026\313\276\231\323\356\276\335\315\332\277\033\001\275<[m\002>\350\262m\276\367\0166\274K\376\352\276\250O\231>\307 \317=T1R?x1\310>\306`J\274\320c\362=\3561\243\276{\215>\276\306\300g\274a\037\350\276y.:\276/\024\013?\353\006\014=Xx\307\275@C\242\276\305Z\215\2775\204\262\275C\351^\276\217\244o?\032j\332\276\017\016^\275\300`\n\277\375\221P\276\353f\203>\331\177\223=\306\031\031\275\013Xt>0\366\324\276\330\352\221;\027(\">|\277x=\001\016\302\275\255\351\200=g\213;>2\243\263\276R\301\366\275o\223\013>\2478\006\276D\227-\277E\375a\277_\263\263\276\376\"o\276\216]/\276u9\365\276\303g8=\203p\243\275D\0318\276\225\347\353=\234\264\356\273\345\265N=\205f\210=\177\021o\276T\211\254\275&\t\372=\003G\013\277r[N\277\370l\201\274#CI>\261\236\005\272\026LJ\275\030|\221>\235\025h\276~;D>S}\354=\203E\230\276fd\202\277)\307-\276\025\331\211?\r!?=\3302\357<\347\211g=\2032\213=y}{>\356\245\234=\264\254\337\275\n\312\211;_p\021\276(Dl>\252\372#>6)U<\232k\276\2746\316-\277\020\001X\275J|\303=\300\317\013>VG\323=\003\200\232\277c\257 \277\326\322\341=\325\277\243\276\2407\215\277:\360\272\276\026\323`\275p\213\373\276\020@<=\241H\003>!\343 =H\376\r=\275\225\202>\031\246\274\274\345=\333=\022 \035>S4\241\276 ?\351\275\374\357\035<\335\341\352=\301\263\226\275\222,\016?\370l\223\273\032\200\226\276\"Z\000?\031>@>T\207\032\276/\231\377\276<\257i?\177\034\024\277+\277\260=R\371\344\275aJ\343>\213\254\237>\\\234\243>\225\363\216>\273\375\265>^\254\306\277\233\"!>\236\n\255\276\200\205\030?\301f\303\274\023\010\243\274,\312,\276Y\013\217>\307\020\001\277\263Y\366\275)\267,=8\352\214?Z\253\371>|L\345=\351\003E?\336&\346\277px\036>y\264E>}\277>?)\332@=\262\212\220=j\370[\2750-7>y\245\027?m\211\361>\202\353\272>w\202\267=\265+^=\360\334\212=W\237\002\2762\234;\277\000\217\033\276\373q}\276\270@\273\276\211\036z\274Y\001\267>\'<Y\276 \342P\276\222%9\276Q\362Z>!\030}>\372l\337\275s\2778?\301y(\276\021\006\251=G-\342=H\335\276\2754\205\303=\332\267\353\276\035\023p\276\203\335\026?\364\271\273>\340Q\t?\211\245\373\274|`\252>C\263\364\272\253\024<>u\010\000\277\232\223\342=qe|=W\374@\276\t\276\213\276Au\220\275%\"o>\353\356\363>\323S\203\2727\346\204>\205\324\213\275\237sr>\273S\246>\027\266\004\273B\374\330>\217\235T?\230\323c\276v\314\207\275\240\317\224\277hc\362\276\343\177g\274*\366\346\276\314VZ=\245\254\027=N)\244>\212%\215\275\276\354\345>}\t\272>f\203\266=6\375d\276IG\235>\230e\223>\225i\251\274\253bN?)\016\036=\010U\343>\232\032\236\275\373b>\275\033\007\356\276\257\013\306\276\177w\221\275\244\177o>\331sA?H.\267=\371{{\274\215.(\277R\333\207=\275\333\311<\220\013\265\274\360\211\243=\346\t\214\275c.\320>_\nV\276\271M\177\275h\347+\277\375\217\026\276\037U\212\275?\352\252<I=6\275\225;P\275\365\243\332=\3579e<-\210\016?\225\252N=1\255%>q\037\242\274\300N\260\276\215%\211\276Q\024\027=x\200\375=\364!\n>\267\n\206\277e\353a>\253dw=e\177\267=\343_d?\320s)\277\325C\005\2768\341\027?\215Q\250\276i=\027\275\336/e>K5\312<:\0007\277hw\177=\345\350\r=,\000H\274\206\226g\275Y\231\220\276eH\231=\201\022\356\275\030\314\202=\371\314\262;\362\354\023\277\331\2217\276\250\261\354>G\304\n?\035\244\200\275Xw\265?\231\276\n?\217\256 >}\304\320\275\360}T\277h\217K\275\007\244\362=\340\357\005?\343\361\311=\330\355\370<\306\225\255=\206\037\300=\347\353>? \361\303>\366em\275hJk\276\255\013E\275\013=\323\275\035\226\300\274\371\202;\277\212\\\326=\312|\024\277\005\332\233\276\263/k=d\256\226\276S\023\026<G\236\224\275-tr\276\027j\264>\030\0369?\026\225\333\275\016\214S\276\351\344\202=\375-\007\276\355<G\276\274N\261=\303E\241\277\374\035\252\276\001_\'\277\247\351\275=\224S\343\276V\251Q>\020\355\366;\021:\221\274Nn\263=\224_\251=\224\2156\274\0365\n\275g\270\033<!hP\276\212\267\r>\351A\270\274\376\177\266\276$\253\245>\370k6;\200~\367\274"
      }
    }
  }
}
node {
  name: "b4"
  op: "Const"
  attr {
    key: "dtype"
    value {
      type: DT_FLOAT
    }
  }
  attr {
    key: "value"
    value {
      tensor {
        dtype: DT_FLOAT
        tensor_shape {
          dim {
            size: 12
          }
        }
        tensor_content: "c\350\006\274ei\036\275J0y\274\031\264\306\275.s\026;\363\2317\276d\327\304\274h\023\245\274\317\377\306\274\363\302\300\276-z\246\275\267\221\016\275"
      }
    }
  }
}
node {
  name: "f4"
  op: "Const"
  attr {
    key: "dtype"
    value {
      type: DT_FLOAT
    }
  }
  attr {
    key: "value"
    value {
      tensor {
        dtype: DT_FLOAT
        tensor_shape {
          dim {
            size: 3
          }
          dim {
            size: 3
          }
          dim {
            size: 12
          }
          dim {
            size: 12
          }
        }
        tensor_content: "\202\315{>\003#*>\354Q\243\276[!\337=r\033a\274\226O\202=\242\030J< j\260\276\306i\361=\337\310\307\275\234\355\215=\264L\254\275X\'\265\274A\002E>\373E\340\274t7\261\275HX\370=\3345\032?\351\300\303\274\306\000\271=\006 H\277\177\222\221=\304:\245\2762:\212\276JM7?\356\345e>\272\242\236\2768N9?\\p\207=DH\222?P\265\020>6e\360\276\355\206\237?B\320I?\003\325\022?\017\236\323>\324\217\240<M\362\351<\260\201\353>\t\036N=n\023\232\2748e\375\276\341.u=NFt>H\322\022>J\347\276>\331L\200\276>Y\355\274\301\262\232\275\247.m=\355\230\217>\353G\203\276\024u\351\275\265\372\271\276\371T\177;\251\226\t\275\266>\357>\023;\232\276yy6\277c\370\347<\236\274\241\276\016\021X\276\363>\244>C(,>\241\r\010\275\006\264\'=\240)^=\3714T\276{\tY\276\317Q\003\277iZ;>\353o\204</>w<P\2073\276\376\211e>M+\014\277`[E\275\263E\n?\232Dh<t\242o\276\267\373$?`\234T?\305\022\023>\272\330\331\275W\311\360=\014\366H>q\323H\276_\227$\277\373\315\365\274\353\347 >\344\r\270\275\237\202\271\275\227\3532\277\203^\241\276\266\325\342\276\207\235\312\2767\224\220\275{^\271\273m\036\233>\376s\237\276\262\\\231=.`\255>\303Y`<-N\324\275\266\315\345>\311I{\276\255|\021>\027\363\025=\244\376\244\275\022\010E\276G}\363>\244_\204=G\014\314\275\357\301\206=\022N\026=pF7=\274\301>>\225\246R=\264\344\246\274\204\230\232>Z[\034>\271\017\001\277\223\246\216?\250\266\245?\211nw;h-\024?Y\377\200\2757O\002?\345jO\277\216\211\307>\332\336\245>\n\324b=\210k\025<I\331\257=\"E\243\276\323\316U\275\276tW;\321\347\251\276(n$=\t\261\266\275\n\005\303=\266\021\335=|4\\>\376\261.=\330\310$=\\\377\232=\255f(>c\323\230>?\311P>XM\226\2769\340\242=\262ef>\234K\364\276a\255\367\2754\344\314>\326\255\320\276\330t0\276\3410-=$\232\275\276\006\211\373\276~Ao=q\\\027\276\n\220\356\273J\375\'>\337\026\344;9\n\262\276BQ\206\276lq\300\275F<\361\276\330\365\216\276\211\373%>\242\004\004\277}\032\242\275r\003@\276l\337G\275\313\n\260\276\317v\203>\250\342$?\266\252\236\2762iZ\275Q\216\240\275\260\216\234\276K\263\355>\'\226k>\261\273\341\275\375a>\277!\353\251=Jk!\276\221V\305\276\373\355\353>@\201\032\276\030kh>\330\301\324\275\216zi\275{b\207\276\347\005\302\276KwI=\274Q\226>>e\224\275\036B6>\240\313[\276\027\3754>q\177\233\276A{\311\276\232[\246>\300\321s?\0314\237:pE\'\277\250\n\232\275\240g^>,\210\022\274\337\027\322\276&\006\224\2769\013\350\276\320\030\375>D\007\234=\377\252\314<s\317\254=^\300\t;~\203\033<1\316`\272\034\335}\275j\034U=\301+\351>\177\222\026?\253\273<\277h\004\356\275\325\311O=~\\\324\275\371\237\271\275\364\324P\277\222rl>\314\373\246\275\274\331V>\247\255\035\2753L\027\276#P\326>\201\244\221>\366\356\202>I\316\014>\363\243@>\3571\261\276\335\203^=\364vS\277\214P:=&\333\241\275\222\2071\275l\211\006>\277\326L\276AVX\276N\226\003\275\344$e\275\007\317\021?\276d@=\035\320\013\276\022\307C\276\364TB\275\233&\207\276\2774\032<\206\013\357\274\315\"~\276\004s\223\276?n\006=\031,\337=\372\224,\276}\261\242\276\035\255\342\276\305\341\346\275x\250\201\275\2514\313\276\t\317\t\276\002^c=)\355\340\275\010\307\035?\\\323\311=\243&\">\342\213\305\274\264\325\"?\377\342o\2751l\250>\332\024c=\231P\230>\321<\352=\225O\240\276\342\352\275\275\234\344\026\276\360\010.>\262\027\035\276\357\2406\276\013\253\357=\335\264k\277\212\347\216\276\210\262d\274d,Q>\032j\233=Z\244\t\276Y\364\035>p\223\300\275w\032<\276\302\307:\276\341\240*=\324\364\311>H\264\225\276@\311)>\224\350}=\000,\006\277\273\260\347\274\231\326\347=\266b<\276\\P\325=\026q,\2740Z\266\276\245\325\014>\007\211\273\276\324\334\357\276\3667B?\230\005K\276\206Zr\277L\330\201\276!\023\035\277|\"\356>\025;i?\221Y\n?l1\225>\275V\217=\304d?\276\340\0166?\006\203\030\276\t\245h\275\254\251\177\275\002\270+=^0s\276\261&\256=\256\3407>\005\n\206>\315\303I\274|\276\036>\205\340\027>8\367\301=H\030n==\246\217<\3411\005\276\312X\331\2754\'\351\276C\213N\277c\332\265>\010\010\335<\230\372\265\276\334\233\205<\363\377\220\276\024\225\001?y+\267\276\377~\307<\240#\210>\206\013\370=\365V\307>4my=\nt\033\276\211\367\362\276v\321\'>NR\244<\rr\376\275\376,[=\303\266W>\220>h<\226\365\340<\274\347\360<\215\235\237\276\350\007\r\277\037\320\235\275:}y\276\333\312j>\217\263H=k\206B\276g\036\023\277\244\211\254=\013%P;\2252\201>\227\263\364<\364\216#>\006f\014\277\033\207\360\276,\326\017\277\\\275G\276:X\007\275\\\020\312\276\325\324\365>\255\377-\277h\354\'=\243gB?\330>\313;\207\007f>\003\361\005?rm!\275\322{W\275~\317\370\2766\237\303= \350K\275\'\234\206\273\223^8\276\351{Z>\341\3155\277[\210\024>.]\253>h\231\332\276b\272g\275\241\215\036>\007p\361=l\224!\275\254\345\324\276\347\\D?\342\301\215\276C\324*\276\350J\030\277\005\242\215\275]n*\276\262\240\231\275\2647\332?I\342\333=`\324R\275\376\204J=\3240v>\360R\200>\204#\030\276\220q\035=\360\324\267\275a\235\204=\367\332\322>\003\312\223\276.\233\371\276\\J\277\275\255\373\227\274\003\007\034?\000\204\034\277\214\311B>\374A\316\276b\2667=\214FO>\322\377\320\275l\232\254\276$\233\267\276\247\300\346\276\252\rB>\242U}\276\t_\261\274\250\\\037?-\240\243\276\377\272c?]\022\026>\246\261\'?\364\354\240<\374!\334\273\366s\001\277\220r\352\276\002\206\016=\014\357\030\276 XQ>\2214\022?6\224U>\326I\250?l\0241>\016\250\324\276\237\222\022>\204\357\253\274\236\355\230\276\350N\003?\030\347\262=W\225\252\276m\317\200\275i=\007\277T\277\t?04\235>\027[\025\274F\352\322>b?\263\273\311/\362\276\362\203\r?\374\313\257\275\347`\332=\334t\r\276\326\243\026\276\360\262\">\021\033\225\276\3276\305\275\331;\247\274\250\232)>\220\035 \274\322\324\035\276\244s{>>M(\2772B\262<4\361H<\243\033\277=\021<\372\276\213\321\265\276?\377H\276\272\273;;\312OL\276\013\241\251\275cNt=\014T\026?\005\200f\276h\0209=\361t6>\264\351\271\275\250\362s\275\t\000\334\276\344a\352\276\232\341j<\362\026\220>\367\375O=Ho1>\313\263\312>x\021\n>e\276\013\277m\375\205=\360\333\345\275\305FG\276\271\2457\277\361\334\001\277\371\201\027\276\360\326c\275X\323\343<\226\243&<\375\236\022>\027\007\336=\\;\305\276f\206v>\264\202R=\353\247[>\242\257\032>\332r\t\277\017@\226;\270\210\246:>j\177\274{d\277\273C\007m\276\365C?>Q\340)\276ZNL\275Y\017\324\275q\244\202\275\013OZ\274a\303\'>\177\rN\275\243\016\343\275\237\363\246\274S\212\370=\371YP<t\265\206\276cSw>\370\224\252\2750\323\226\274\334n:\275d\204J\276\n\271\014?Sn\340=\r\202\376\276\371w\">\310\314\013\275Lj\377>\030\305x>\361Ki>\311r\027>\347\275+?(\201&\276\215\204\344\275\253{+\276\377|+<a\307\n\276\307D\232;\263\372\215\274\312z#\275\220\030\035\277f=\214>\205\251\204=-\004o\275\224:\267\276\256\310\032>\216\r\276=6mp\275Xi\377\276G\221\223=N\367\247\276I>c>\207QI?\247\332\014=\327=\331\276\324\t\031\275\372vC>\323@\207=\010\030\017\277\306\377\243\275]\273#\277\0224E;\274\034\212\276\341\364)\277\037\264\276\276j\361x=\233]-\276\303\006 ?Y\253 \277\016\251v=\253x{\277{\316\366>\331\302\223\2765|\265\274P\313\035?\363\r\355\2761\222$\277\254\235\335\274\355M\234\275\216/\325\274\307\326K>i\254\016\277T%\005?\327\030\034<\250\332\305=\252\372X=\357\035X\27610\215\276\364v\367\276\343\215\202>\220\265\251:d\234\274<G:\313=\263xE=\353-\373\275\315\'\341\274\271mD\276WZ\230=\037\367\246\274\257f\227>\331:\232\275\325\360\320\275G\003Z>\360\233\365=C\225\242\276\363\335\306>&\324P\277\340\r\002\277\243\007M?O\236\n\276S\026\271=\035E]\276\231\231\224>\256\t\326\2747\267\001\277\021?\206=|\216\\\276\333&\364\274\212\273\375\276\245<\271=\351\035;\276;\037\225\274[\'\023\275\326\200\243=\243\241\014?\362s\346>\264\370\000>\r\211\361<h[\002\276x\366\223\275GY\204\275\302\360\215<\017r$=+\207\211<\024\346\030\276U\310\004\277o\224\260=r\353\262=\257\322\264=\020\357\"\275\n\306\261=P7U\273#\nH\277\313\224\224<\210\320a>(\305\306=7\351\343\275\260\316=\277\0302\235\276\257\220H?H\321U=\347\020\325>\216w\032\276;G\016\277\337\341L\277\021\236\225\275\017\272\302\275\244\310\232\275f\334O>|\335\351\276=HF\275\243(\n>\222\331\274>\334\360 \274u\031\317>\324D$?\214\316\265>[U\213>&\247\365\276B\266\244;\013|m\277\250*-\276$\0345\2772\372e\276\332bA\276}\005\030\277\204\340\366\276\005\031\327>^\2535>\315\266J\277\217\3522=bD\334\277\374w;\276\335\235\261><\231=\275q\032\304\276\362\351\376\276\352M\246\276T\342X\276-\236\356\275\'\tq>\362g%\275\327V\r\277S\203\373<K\256\340>D\367\221>\353\3749\276zk<\277\307\363\010\277\231d\272:\265\263\363\275\364][\275\202in>s\314\213<\027\352\016>\211\347e=\201\222~>\237\027\251\276\222J\036\277C\225\013\277\272q\217\276\000`@\277L\211\017\277\361\250\017?V\251\025\276\000\004(<\351\2627\276\277\266&\274\t\315\345\275\250%\316=E\212\223\2774W#?:uf\276`\350!\275\216\313e>pq$\276\312\273\230=\036\003\245\275\244\344\244\275\241\315\324<\236`R>\244\035\351\276\014\310\020?\357\202\033\276\210uH>\332\013T\275\367\3743>sU\337>\303\307\232>FwO\273\366 \014\277\241t\247\274L\207\236\275\363\235K?2\370\010\277\277\266X>\022\024I\277\353\206\352\275\374H\346\276jm\242>\003x\255>\\\031c\274\273\3245\276.\306\300\2751\327)\275\312W\222\275\317\0033?M}h\276l\321\332>\246\212/>h#\350\276m\033h\276\323\'\254\274\304]\035<\030\212\323<,R\234<4\001\201>!Q\013?\r\276\025\277d\352\240<\264\'\250>\252\3453\276\217\340\257<\307\345\303\276\306\353\342\275Sk\276=+M?=\255c\273\2744\310\355>\004\200*=\021w\376>\240\247\016\277\210\251+\277\350[\225\275\242jV>\240=1\276\355@\223\276\243e\307=\272\344\374>\000Q\201:7\232\000>\210b\010>=\240\026\277N\351\355\275-5\320\275M\362W\276\202\202\305\2755\006c\276u&j=\245\222<=\341.;\277\025S\320=X\314\215\276K\245\003\276\332\244\023?\r\250\002\276\310\304\266\275\311\375W=\034R&\275zf7>\206j\202>\3163\225\275O\340f?o.\345=\263T\233>\225\213\035=\026#\016\276/\257\362>@\325-\277x\335\200\275\375/\356\275?\347\374\274\347\005\026\276\263\377\253\274\\W\006>\022\260Z<d\260\021=\245\245\216=\246\270\372>(\235\026\276*\244\357>\320\252\271<\351*\017>OY\027\277\320 \347\276\271\223\325=\2067\345\276Ip\305\275g8\221\274\364\301\001\277h9\212\276\266\206\210\277F\336\241>\014\n|=Bv\221>\354\2752\277 \202\002?\2030L=\274\336z?\370\225P<i+\020\276\237\373h>\215\204\025\277\034\320\304\275\375\247c>\347\035\016\277Ri\244>\006\361\025>\367 \220?zm\203\276\n\371\246?\024l\305=\226K\376>\221\356]\276\342\342G\275\347\220\243>\302\246\314\276\257b\241<\002\347\204\276I\337\220?\331\303\214\277\262\3432>X\001\027\275\350O\224\274\363\356*\275z\315\322=\360\312\003\276\230Mh\277\243\017\332\273\237\217F>\347\237\354=\215\002!\275\332\214\037\277\257\210\201\275Us\345=\217\262\316<g,\255\276\367\226\367\276\347\037l\277\177\255%\276x\331c>D\2114\274\325\357\r\276\210&K\276<\031Q=geN=\250\245.\277/\2723<\000\305\253>y&\204>e\016\n\277\346b\250>\231\342!\276\260m}\275\367\177$\276\023\275s\276\340 \006\277$C&\274\210\237\316\276\006t3\275E]}=2\273\021\273@T\277\277O]\347\276\211m\236=\311\234\006\276\022\333\205<\374\217\243>\247\367\301\276[y\272\275\365\355\316<w\024\351<\222 \352;_]j\275\n\250k>[D#\276K\310\351=\363F\232\2754\354\031\275^\310\360\275\232K2\276\357h\240\274T\356s>5\266\242\275\2743\016\276\326\271\212>]\231\001?K(\254\276_:\004\276\202\246\345\2752K\223>:\361&>\r==>\2144z<\303\324\016?\004\226\351=\304}\246>\300\023\332<{\363\003>\310?<\276\305\312d>8\272J?\203\016\232>\367\037\035?\335\224\263>\021\301e>\3727\266\276/\275 =\023\307\251\273\035\025\264\275b\365\033?\026\204\207>\323\201\215\275q\224\232\274W\025a\274\217\255\">~\360\225>gfr\275\034\335R=\274a\007=\007\310\316=\345\311\205\276 \016\375>v\340\'>\031\352\026\275\323\237\210>\303Er\2769^\266>E{\023=\260\000\226>r}w=\363\307\000<MH/\275\235<-\277\300{+\277\004&\241\276\357\215\006=\212\370\211\274\367\2267\276\005\207\245\276R\227\325=*O\325<W;\253\275\313v\005\276\327\343\372\276\202\320I\276\3138\033?\032\305\001>\\\352\020\276*\n)>\304\266\303\276<\354\211\276\006b\220>\236\261\357=\233\005\310\276d\264\331<\374\2046?\022\361h=\310$^\277\333w\n?r\206\272>\177\242C=\376\203)>\314h\206\276\037\0264\277Y\217\200=\377^\212\277\025\264x=#\375<\276\302\351$\277\030JW\276\322^o<Z\366D>\240\275\267=o\375\301\276\346_\375\274\rH\240\276D\306\236\275\331\314\234\2767\301\344;\333\250i\275\307\374\260<\347[>>J\306T\276\256\215\365<\364\177\346=\"\205\034\276\255>\202\276\231_\246>\330\364U=D\342\253=\227\035\371=\3465:\276B\365\264\275]\331n>C]\276\2761\001P;D\247|<0\277;>\002q\274\276\244\355\237\275\3669\357\274\276F\007\277\224f}\273A`!>\247\377\342\276\265\005\005\277\216\224\354\275G\327\336=\345$\277=O\372\256>\356\013\244>`\225\223\276\r\235\313\2751\377\314\273\333\352\307\274i\001o>\244\366\235\276\274?`>-\331&\275\340\023\241=\236\204]<\233bF>W\033)\277I\210\334\275\014t\246\275\236\r\316\276?\010\021<\"\213:<\324\216\177\276&5m\276\264\365\365\275\316\036\263>m;\301>r\211\372\275Z\372\262\276k+\241>\201\014\362\274\\K\360\276\314z%\274\030\0001>\2177r>\034\237\324\276\026\322n>$17>\301i\365\276\t;m=\237mV\277\232o(>@\005(\276\356\025\020>S\203\302\275yI(>i\000\034?\342O\t\277\370\321\326>\330(\206>\274^O<Cm\237\275)\230\237\275\367\026\025\277\242|B?\371\256\021\277\340\336A=\253\025\217\273\302Br\275\374\177\205>5\363\233\276\222\352\002\275{T\350=\250\262\327;\302$\260\275\000\347{\276\232\214\236\274\350\365\005\277gu\024=k\222q\276\203\007g<\361\346\273\276~\3130\277.\250\201\276z\234!=K\033\321>\3258q\277\233\225\337>\223\267\013=\252\374\354>J\232\217\274)8\">\377\255;\275Y\205v\277Gp\304\276\214\272!\277\336\027\231=\214h\372\275pv\323>\232\006c>\305\217\r\276Z\321\221> \365\314\275T\"\007\277\304\341\002>\"\360\226\276\274\314\304>\346\371\341\276Q\324@=a$\206>[\365\241\276\223\257\273>\246(\277\275\300^\333>\021\0140\275Y?%>\305A\314=\212<E<\334\302\014>6\242\274\275\322\242\003>\006%:\276\220Z ?\351b\232>\273L\354\274 Z\312\276\276\303\020=\317}8\276\2740\230>X\314\001\276\214v\204\276\003\342\342\276\257*\t=\311!\005\276\024,\322=\313\373\267>T\221\022>`r\214\277\323\t\203=O\216\035>]\n\356=B\242\025\275hU\317\273z\010\252\273\255\234:>\373\'\017>\255\210\022\277\236\034\010\277\303R2=+\341\216=\035\026O\275\360B\217>%\272j?6\366X>\030\203\273\276\2104\016>\304\311\323\275\247w7\276h=a\277r\301\323\276\316\260/\276\320J\301\275t\317\234=\033T\037\276\245\233\213>\373T\341\274\r\013\202\276Do\370\276\314\235\306=\371/F=\316\205\272\276\247\022G>\013i\n\276\254y\002>>6\300\273\324\247\273>\025.\321\276\227q#?\364\277G>\000S\275\276\221-\315=#\361\271\275\'\365\363\2762\032\006>\326\322\021=xm\270>\n\002)>P\276\016\276OV\313\276\213\217\211=W\207\243\276\351\014v=\205\230\\\273\307\362\303\276`\006\007?_\006y>\324\304\213\275E\235\314=\236\013\336\274\326\"\211=N\261\241\276\224r\210\277\270\202\302>tM\262\276D\326\2169v\360\325\275\303\331P\276\227\234)>\225P\332\271<\366\306>F\346T<\002#\315\273P\314\\>\212\nA\274c\005U=\377\371\324\274"
      }
    }
  }
}
node {
  name: "b3"
  op: "Const"
  attr {
    key: "dtype"
    value {
      type: DT_FLOAT
    }
  }
  attr {
    key: "value"
    value {
      tensor {
        dtype: DT_FLOAT
        tensor_shape {
          dim {
            size: 12
          }
        }
        tensor_content: "G\333\342\275Ly\335\274\353\370[\276\277\027\021\275\360\321\035\275\025\213/\276\034Yn\2756\344\351<\307\352\014\275\034\265\236\274\315\253*\276$\200W>"
      }
    }
  }
}
node {
  name: "f3"
  op: "Const"
  attr {
    key: "dtype"
    value {
      type: DT_FLOAT
    }
  }
  attr {
    key: "value"
    value {
      tensor {
        dtype: DT_FLOAT
        tensor_shape {
          dim {
            size: 3
          }
          dim {
            size: 3
          }
          dim {
            size: 12
          }
          dim {
            size: 12
          }
        }
        tensor_content: "\223c\010?\013\340\207\276;%P\276\256\024\365>{\002\273>\361T\005\277#6\033\277\020\216\220>\\\223\313\276\323\374\237=\224\302\311>\345\303D\275o\201\017\277h\'\035\276\231D\023>\335\347d>ZG\353\276\233\357F\277\356\034\014\277(;~\277\323\300\340=\235_\267\275a\022\335=u\017!>!R\321\276\373\261\207\275t\244\305>$w@>\321+\316<\016\035\016\277B\266\036\276\244O\245\276\"\307\204>\237y\235\276\303\241\344=\256\327/\275\335|\370\275\210(\226\276\232m\340;\357\2520\276[u.>5)\366>\003\263\245\276\255\215\322=\362\tS\276\251\305q>\t\276\035\276\317\377\024\274\202\014\221\276\311\203\206\275\241g\033\277\375\256\221\276\307\317\347\275I\376\027\277\275Ob\276@\n9=\003\222\265>\360)O\276\030\241!\276.\353d\275\030\352z\275}\234H>\261J\262\276\357x\272\276\023\256\027?q\3600>\300\211v?\234=\237\276\020\272\351=\023\232\202\276\265&\232\275 \330\204<m\374\322\275\306\361\357=\234Ij\274\275{B\276x\002$\276\246\361\200\274)\312e\276sN\230\276X,\230\275\2718w\276H\367\226=\346F\217;XB\241=.RH=\357\322@>\304+_>X#\237\276A\004\276=1\373\007\277\204(o\274N2\035>s\004;>2\322M\277\216m\267\275\004\314\277>\354}\255>\032\347\341\275\354\367\027?P\022q>\361\204\210>\265\313\216\274 \263\004\276_\2618?SEB>\335*K?<w\207\275_s:\276\023\373\014\275t\321\177<D\256\037>\275\324\235=\202\371\254>\2537\'>\224\036;=(\001.\276\2341\217\275\002\266\375=)\332[\274\216p\245\276~\212K=\003\314U>\377\002\005<\352h\344\276\357\332j>T\037\304\276r\014\027\276\234\324\203\276L\352k=\003u\005\275\3176\024\275\217\237\026?\272\310\217>\010u\313>J\247N\276\302\314\374=^\375\364>\340\253Z?\014 \r?\177\312z>n^\244>\361I\032\277\333\351\312\274\'O\242\276)t\004\277wf\321>\312\310\025>{\225*\276a\264\203=\256\237\r?\222\014\225=Qb|\274X\024\017\275\003x\031\277A\321\351\2751%j>\035\233\261>\257\327X>I\031\363\276\033u-\27627\032\277\213\206\350>\037x\362>\000T\032\276\364\3013\277w\235~>\373\315\034=X<3\276\200\327\031\277\230\224N>\003\360\325\276LPz>\250~\232\276V,\251<\277\314\252\275_\001@>\240\333q\276\030v\223\276\301h\300\274\203f\343>\016Vr>v\370\230\276x\014\315>\334\370_>}\3417\277\2566\332\273\300\317\375=\207\022_>KI\331\276\023\203\370>\365R\"\275\305\257\217<.\003\311=e\224\330=\375\003\244\2756\342`;\272V\261\275\323\330\203=\320\032\266>FJ\307\275\343a\010\276\266+\010\276\"\004\033\274rD\326\276\362\247B\275\206\026\"><\243\204=BY\250\276\254\302\201<_\252H\276ZA0\276:F\325=\350\355\257\275\3750H\275\2070\237=\020>\234=]\371y\277bG\206\274\335\2346=Uo\203=\207\275\247\276\325\266\211\2761\025\"\276D\341\221\275\241,\211<\204\004\337=\005\224F\273e\313\261>\371\233[>B\0149>:\215\304>=\226\004?\030;\020\276\375X3>wv[?J\265\213\275\213\240E>\301\031\r\276\305\313.>\232\340\271\275\306\314#\277z\252\027?\336\314\274\276\375\231\227\276\342%\257>\253;8\276\026Z\030\276\023\222\224\275b\241t>D\375\021?\221\236\354=\007^\330\275\273\317\202\276\244\300\232>\271\252\301\276\005D\224=\205l\275=\023\345\340\276\0106\212\275!:;\276P\344 >\237U\263\276\036m7\274\035\273\311\275\304\037\276\276gF\374=R3z=\003\376\203\276\001\226\215\276\375\300\233\276\001\243@>&\303\340>\206\251\374=L=l\276\273_\177<\245,)>\001\n\204\276D\034\001>\273\267\337>vo\267\276\377V\364\275\253\337\202>Q\036\235>\247\272\'=.C\203:\307\372\343\276!pY\274\253\031\313=\253\0070\275@\244|\276\351jk=\253\206\177\276\210f\201\276WQ <\224\254\006>\027\017\336=FSG\277}P\221>b+\020:\306J\035\276\232\315\037\276\334\343m>d\350\204>(\3170=\375%\016\277W6\273\276\037\2576\277\206t-\276w\252b\276\030\346p=b\212\301=\2726g=\266\374\246\276\320\321L?i\372\234=@\204D\276KW\217\276T\216\017>\204\274w\276\2563\243\276\246\005\234>\236\324\315=}\222\n\276\207J\213>\034P\005?\2432A>\025\250\013\277n\320.>\331E\250\276\271f\335=\266\367e>\010\034\211\275\024\260\025\276\340p\271\276{8\313\275\276$\240=P\205\262\276\265\003v>\013`~>4\316(\2761\">\277\356`\337\276R\214/>\324\031%\276\230OR>\252{\222\276R6g=r\037\307\276Z\'%\276Jky>g\343P?\250\233\323>A\244\014\277[A\201?\007E\274>\001\372\207=_\341\376\276=x\264\276\314\341S\275g\245->C\351{\275\262\0042=\323\207\'>\261]\360\275\241\244G?\022oY\274\334\031\363\275\357\r\243=S!K\275\034\330\314\276\300\364\224\274\300\367\244>\267% \277\023\242\016?}\237\310=\335\3070>\317\321\242>*\347\354>\036\031\"\276\243\312\214>O\274\216\276IP\332<v\221\353\275\r\302<\275\274X\377\276\206\371\251\274\252\305\024?v\"k>\002?\334>2\003F=,\375\"\275\0061}\274\233\323\"\276?*\267>gL\036\274\263&\034\276~\0303\274\210\307]\276~\331\356=\030z\021\276\343\320C=\001\203\372<Y~\214\275\026\020\030\275m\332\226\273^S\212>\225\003\216=\250\033\257\274\3028\t\276\031\373\330=\252\321\335\275|\263\200\276\352\021>\275EM\375=\377kN\276*\277\325=b\026[<\344\267\032\276\303\233S\275\230\002\317<\337\315\227>D\n\366>\020m\317>\247b\252>\333_\303?\3108\031?\351H\356\275I\257\225>\351\200>=\316\364\'?\204\027l=4O\270\275\300\317\213\276d]w\277\224\031X=\221\246\262\275\353\3131\277\232o\335>z\177K>\373\373_\276\215$N\275H\220\240>\264\254\243\274\r\030L\277\\\032\305\276\026\034c>\344\324h>\275\000\316\276i\353\213\276\003\3733\277\305\277\354\276\2470\361\276\313j\006\277\334\355\332\276`+*\275;T\013\2773\000\244\275\004\307\334=\235\325^?\362U9<p\203\263<X\3203\276G\217\375=\r\3215>\353\217\327=\200.I?-\230\272=\223\320\236\276\377\235N\275/\256\255>8-\315\275_\307d>\'\326\247=\314\007\230\276U\336\266>:\3733\277\363\326X\2774tZ\276\006D=<\373K\323\275\030J\247\276MT\016?\300\265\235\275#\025\264>\351\031\325\276\027\303\262=\353\020\t\275\312\242R\276\354\302\034\276\236\211\323=%u\336<\311h\370>\216\267K\2769\254D\275\330\t[\276\215\207\275=l\267\237\276E\301 >M\246\034\276\323/\356\276f\326+=z\262\221=\003\023\235;t\317\013\276\235x\357<pY\302=,O\342:8k\014\275 \313\343\276\364\240F\277)\322\013\276\263#>=\3310\004\276\"\035\031\276;\225.\275\355\007\243>\320\241x\276\231\256+\275hg\005\277\366x\247>v\273 \277\010\016\260>\323\270H\276\025$C\277GxK>\375\370\025\277\363s\345\274\"\016\275\276N\332\211>t\300\267\276\"1\006?\365#\235\275{v\037>\316\313\033?\024S\261\276\216\366\017\275\213(b\277P\340!>\t\301\233\275\345\2502>\341#5>\200/\237\276\n\0354\276J\232->e\314$>\003\326\222>\365\017Y\274RZ\363\275\254_\031\276\232\251\213\275F`/\275\010\222\214\276\006\016\027?*@\353\276\017:\233>\303\017\267\275|\311\243>\"\350\330>e4\016\276\224\275\371\276b4\265\275\372\337p\275?\240\340\274\270\331S>\315\277f\276D7\013\277T\374\'=\022g\247>\337\021\306\276\220\225R?9\306\354>\366G\242\276U\253\005=\224\264\363><\355e<\304\177\353=*\037!>`\220\266\274r\364\003>\0237\370>i#\201\276\313\375\207=j\216\274>zj\354\274\261\037\235>C\220\366=\347\226\212=\363\200Y\275\260\251\262\275\244\317 \277\206\365\305\276@\304\201?\030\312_\276\213=\334=\264+\217?_\217m\276\315\370\222>]k\256<\217\321\007\277m\346\371>V\353\227>W\t\327\276\261\312\371\275\346\217\250\276;uJ>J\362\332\274yEe=\303w\347\276f\254\263\273\346\3547?\267\267N\276\250\204W>!\2036\276\367\204\206>\'X\277\276r\3516\276\247\333\210\276\240w\"\276n\225\245\275\374U\213>\374C\375\276\331\023\025\276\330\241\014>\021\301f\276t\375\005\276(\302\201\276M#\321\275C s=&\240\315=\303\240\331=\375\356o=~\216\316\275G\3342\276\235g\031?\021\262\332\274\373\273|\276\r2\017>\0063O<}\313\277\276\233\370\025\276\013\335\371\276\375\307+\277\006\202\344>\333\231\206=\316&\372\276<\362l?Lj\356\274\327\2205;Rs\373\275_L\366>\005\250\275\276\301\330\">\262\221\260=\274\266y\276\273(.>Z\240\010\277#\214\036=\341\020\t>LT\360=\357\325\010>1\363:\274N\337H\276\227c+?g\234\031\275\\\246d\275\n\320\326=! \250=\307\022\255>C\362\362=[\202\036?\376\224\231=@wW\276\220\204{>*\276\020?\345\007\261\276\363,\316>z\367n?\003\375\377\276U\265\263\276\373E\231\276\307\330\021\277H\020Z>\315\200\023=$\334\\>\344\373\374=Q\237\035>\267\024\315\275\210\311\036\276\034g*\277\357\343\261=\247\337\373\274O\266\365\274\203\216$>\227,\263>Ff\276?\325V\336>\250\2218>\007b\276>Pn\271\276$\210>\276\311\241\267\275\256\235\324\276(\257\251\276\314T\204>\222\361s\276\353\266\225\276\337,\314<N\203\305\274\311\345t\275\310\274h\274M\264\022\277\025mU\276\266\346\350\2750#\177>\216\255\036\275\264\224\354\275\302Dn>{x\010\276\212.\377\274`:\206=&\342\201=n\304\307=\216\235\236=\305\225,\274\225\030\260\276\233(\276\276\r\367\336\275\265\317\033\276+>\254\275\227~T\276\214\250\005\275\354K\337>\213\200|>]L\321\276\252\245Z\276\313\302\017>j\017\244\275Ru!\277\253\330\306\276I\035\270=\224\366\031>\371\246E\276C\211\301=8\2351\276\221n<\275E\013\346\276\236\000\261\276\336\010\210>\2029\221\276G|V\276\2542\220>\361\335\037\276\315V\020<\361!\377=\374\227\311<l\342s\276S\336\010\275R\357=>\016\303\305\274\367\2407<\311-\227>\264?\241\275Ebx>\014\374\304><q\245;]\002\026\277\nZ\340\275\023H\r>\224\006\235>\344\346_\274\276\305j\276U?\262=\346\324\201\276\336\206\215\276\306\t\317\276\314)\026>^\204\324\275\003\022\371=\016h#>\201\245\340\275\241\303\365\276\n\250\221\276\255\001u>%\3338>uo\230\276\372\306\266\275\313IL\275@\347\345\274\213.\027\275\0207\315>\036mR\275V\316\036>\275\344\\\276\001$\325\275\246\331f>F\241\344\274\331\374\254\276\257\237\271\276\334\256E\276\223\261\031\276l\360\020>~\2573=+\002\034\275,\274\325\276\031\341\273\276;V\212>b\323\203\276W4\335\275\226\345`?>\224E\277-\267\035?\367!\272>\253\370F=_0r\275Y\272\004\275`M\000=#\360\234\274\345^8?\270\323-<q\002/\276/\3741>\213\2534>\252U#\277a\202r\276\202\007w\276A\017[>\375?\370\272\325\232M\275\'\325;>)\266)<\035A\200>0\352\226<\363u\001=;\373V\276W\234\252>\270A\277<\214\234\212<\316\353\017\276\002\304\006\276\376\235\272<\320\217\027>\301[\355\275\314\337\367\276G\304\035?$\304\321>8\317\213\274\241P\254\276\376l!\2772\300\354\276\250\335\247\274~Nj\274\367w\215\276\216\202\227<y\336\016?1\"\265\276\025\007\204>s\324\037\276\213\230\034\277&\322\'>p\275\007\277\2530\356=\307{\221\276_\304\210=\312\366L\275#P\371\275\364@K\277\3729!\275\371\014S>k\346\231=P\220\265\275-\371;\274\212W\313=\221\376\266\276\'DR>\344\357\360;\371\203\022\277\022\344\002\2762Fj=\337`\000?.\362U>=\346%\277L6\334\276jT\315<\014\200\022>j\225\030\277wX\242\2767\316\377=\355\360\342\275\276\240W=\356\tz\276\001\352\027>9j\r>\363\0055>\202\335\r?\213\356\247\275dA\347\276_/.\277\332\335\036\276d\364\334=c<\247>\325\204\001>\002\231\277>sK\216\276\335ug\276F\035\202>\344X\345\275>I\200=\340\305\027>\273\017\003\276@P\233\276\247\3210\275\202Y\236>d2\333>\341\003\375>XX\004>\363\270g>\244+\216\276\270\177d\277`\365\304=\0071&\277Z\260\260>\321\027\375\276^H|<t\272\305\275S\\\372>\252\014\206>\276\354X\275\347E\275=\346\010\365>\314\010\307\274\316az\276EO\350>\273\204\226>\313\307\273\276\234*\330<qj\234\275\336|3<\314t\266>\236G\275\275L\0274\276\325\210\331\275h\022\212\276@\210\225\276\216\025\016?xA\035\276=\362\344>\341-o\274m\033\n\277\022p\277<\332\220\001\277+O\363=\350s\233>\026\030)=\354\307\246>\306\217\307=_\026\001\277\307p\342=\374Q\266>\235\313\003=\256jl=\225\306\235\276{`\313\276\340e\256>z\017)>\304\221T>\271\010\367>\330\n\266\276\212J\036?\231d2>THq\276c\357\261\275\024\247@\276Z[l\274b\222\201>\344z\347\275\325\016W\276\225\004\226\276\306\230\336\275\005\207\016=\233\205X>\211\301-\276\360\237\036>\377\327v\272\367\305k=n4\020\276\005\3743\276qo\377\275\354\221\241>q}\234>\367\261,?GW\002\276[\024g>{\232\007>PB\237\275\207w\005\272\366\003\027\275\311\375\020\276cz\300=76\224>ca\323=\031#F>\277MD=\202\021\271\276\001\301d=3/_\276\306\003S>uQ\303\275\344\344\215\275\"\227R>\342x{\276k-B\275\361\244@\275\207\361A\276a\333\320\275\346\313\264>\220Go\276a\372\014>\006\346\205\275\216\006\257\274^\211\020\277\336D\265\276\347\t$?\267\235\032>\263\300\247\276\354\204\240\275Z\306\301>\336\340L?0\tR\276\232=\362\276H\361\'>;\252\t\275\232\357[\276oc\265=E\277\220\276b\314\005\277\210\265k\276\251E\250\275g^p\275\0273\214>\200\210\252>\357\251\370=\371\216\230\276\352\221\332<\234\206\333\275~M\360\275\361n\026\277[\227\351\275\206t\212>\351\006\315\276\323\202\353=\243\265?>>\252\324\274\035\277\222>oA\374\276\247Y+\274\001kC\275\266<W>+\347 \277\370<\262\275wE\235\275\337\362\007\277\267\004\366\274f\217\252>J\344\034\276;BU\276\324\344X\277\031d\215\274\323\352\314=\241\255\246=\364\343\241\276$\346\343\276\324\270\326\276*\374\203>tg\036\277\236\001\352<\206P\001?\256Q<=4\312K?\327\335\346\275\267\024\222\275\003P\217\276\005C>\276\tIN\275\245\010!\276\034-\323=z\273\030\277\364\315\023\277\372\001\242>\327\237K\276\272\031C\276\363\337\300\2732\016 =\342\272\261>\324b6>8E0\276\342\360\261\276u\177\030\277\330\027\002?\035\231\244\275\231j\r?\271\331\215>k=\025\276h\365!<\364\010e>\211\202\306>n9\366=\257\313\262=\216\221\361<\026\324z\276+3\r>\354\3753=\030\334o\276\315\334\274\2769\220\231\276\0176\273=\210h\032\274\337\3364\275q\226\313\276rz\240>DV\016\275\2408>?\335\376\252>\205A]<\035&M>\211\223\n>\210\"b\276\355\233\247\275\030X\241\276\355\311\307\273\274f\201=\330$M>\230\021$\276C\221%\276\243\360\275\276=K\200\275\323*[>1\354\006\275\005\340\203\274g\331\277<\330\274\237>\375\270\207\274Rm\222=\220\326\310\276)\023\242\275l~|>\331\271\306\276\300\006>>\320q\020?\316,\336\276\031X\242>\257@\302\275\007\276]>\001\212\034>(~h\275d\037\003\277\036{\322<4d\013=Te\256>\352\025;\276\000\333\017>\017|\341>\316Z[\273e\260\347\273t\227->\271\2730\277\216\"\321>\237\235\035\277F\361\273\276\246+2\2776\206\217\2737\014\202>\023\371\005\277\313\024Z>\036\263\310>Zd\035=\271N\001?\307\204\r\276n\030\211=\247(\346>2\272g>\3552\212>\005\361\020\277\207\311&\276\237dD\276\004\216\001>\271H\375\275\210\236\267=\013-\222>[\273O\275\237\341s\276\307\241\377>\233p\356\274\363\026\331\275\202\265\235\276f\216\032\277d\361.\276\244t\360=\020RD\277F\235I\274\325\233N\275y\370\310\276\354k\253>W}\024=y!7>\"\353\004\277\263:\360\275[\204\177>}\2720>\236\035\002?\304\263W\277\036Z =a+\252\276\313Y6>\254j\216\276\321\341T?\020u\374=s`\203>\241{s?\306\203\322\276\303\314i\276[_+>/\271D\276\357\341\036>\316k\r\276\357\241\001\275\375\326\272=\026\327\177>\315g$>!o\241=\336f\013<Z\326\n\276\247\355\200>\\\214U\275\376M\231</t&\275\334\324\347\276A3\266=\'\214G\275+\032\'>D\002\377=\211{\026>\374\312\270\274\231\265\321\276P\341\"\276H\221 \276phJ\276\337\374\n=\230\263\221\276\244:\373\274)\256\006<\272\'\322>\277\t\247\276mq\273\2764\362\013\276\240\234\274\273\305\000F=\361\370\207=\014\230\262\276\311\263p\272\233N>\274\244s\271\275\">\020>\367\273&\275\205\272\371<Ee\232\276`)I\276\203TM\276\312~0=\214\334\262=\201\235\344=\302l$<{\311z\274\265\357Y>\205\030\221\2749,\273\276\355\255\001=\313\376\316<\215gV=\277\001i>jY\341\276qP\366\275\024{\'>\375\320$=\322Y\347=\353\020\327=\347\301}>\327\035\375=\212lw\2753\207t=\360\333x\275iQ\231\276\234;\355>\177\t^=J\\\224=x\333\255\274"
      }
    }
  }
}
node {
  name: "b8"
  op: "Const"
  attr {
    key: "dtype"
    value {
      type: DT_FLOAT
    }
  }
  attr {
    key: "value"
    value {
      tensor {
        dtype: DT_FLOAT
        tensor_shape {
          dim {
            size: 1
          }
        }
        float_val: 0.4565054476261139
      }
    }
  }
}
node {
  name: "b7"
  op: "Const"
  attr {
    key: "dtype"
    value {
      type: DT_FLOAT
    }
  }
  attr {
    key: "value"
    value {
      tensor {
        dtype: DT_FLOAT
        tensor_shape {
          dim {
            size: 56
          }
        }
        tensor_content: "\021\251\220\274I\326\2219\273\260\305<9D\220=s\263\235<\375\032\316\274\377\027C\276`\270\'=\013\311\252\276\232i\005\275\254\032\225;\265P\221=ia\325=\346\257o=T\273m\275u\'b\275fV\216\275\270\016\350\274\234\030P\276\262\267\001\2763oS\276\322S\322=YR&\275\274;o=\233&\206\275\331=\336\275N \000\274\350\225\374=\224\031\377=\00311\276uO\036\276Zhb\275J\030\244\273\"\332B\276\373\276\227\275Zq\247\275\236\223\016>I\267\343;\202]F\276n\266I\275\375\371\000\276w\300\256\273\354\002\016\276z\002\225\276\321a\272<\221mU=\373\240\202\275JI\035\275\310\016q\275\203\366\242\275\230\247P\276nA\272\275\2401*?_\245\037\275\220b\020\300:+\217\275"
      }
    }
  }
}
node {
  name: "b2"
  op: "Const"
  attr {
    key: "dtype"
    value {
      type: DT_FLOAT
    }
  }
  attr {
    key: "value"
    value {
      tensor {
        dtype: DT_FLOAT
        tensor_shape {
          dim {
            size: 12
          }
        }
        tensor_content: "oL\241\274\340\211\240\276\337he\275g@z\275I\277\316\273%\274\201\275,\342\241\275\3176\033\275L\026\201\275\263\033\373\273@\231\225\275\313\016C\275"
      }
    }
  }
}
node {
  name: "b1"
  op: "Const"
  attr {
    key: "dtype"
    value {
      type: DT_FLOAT
    }
  }
  attr {
    key: "value"
    value {
      tensor {
        dtype: DT_FLOAT
        tensor_shape {
          dim {
            size: 56
          }
        }
        tensor_content: "]> \275\001\030\327\275\252[r\276I\2303\276{9\215\275\311\364\264\275!\344>\276\r\221S\276\\\364f\276\335t\'\276V\376}\276\255V\222\275\275\307\316\275t\265*\276\265\260(\276\232\304F\273\327\031-\276\361\222r\275[\334\337\275K\234>\276h\333P\276\236X[\276n:!\276\333Y\001\276c/&\276j\323\001\276F8\002\2768\'\245\275D.*\276\241\246e\276y\326-\275\200\243f\276 \325\304;\000\246\331\275\201\306\022\276\222\366\353\275N\320\344\275\303\240K\276\221\207\260\2756\203\272\275:\374\204\276\360\363M\276\221\232^\2759~\236\275\356\305\310\275\345\233\372\275\323\227\234\275\315]\023\276\217\\\021\276\274WY\276\201\304\010\276f]\002\276\334\177<\275*\244\020\276\375\347\005@\262a\331\275"
      }
    }
  }
}
node {
  name: "f8"
  op: "Const"
  attr {
    key: "dtype"
    value {
      type: DT_FLOAT
    }
  }
  attr {
    key: "value"
    value {
      tensor {
        dtype: DT_FLOAT
        tensor_shape {
          dim {
            size: 1
          }
          dim {
            size: 1
          }
          dim {
            size: 56
          }
          dim {
            size: 16
          }
        }
        tensor_content: "\r\323\260<\235\360\215=\244\337\312=\205G\262=\303\227[\275\327\321!\274\223\257\314<\212\357\331<\026\346}\275\206JB\275\331\341\301\274P\302\214\274$~\361\273\"U\005<9d\030<\267\240o\271\322\026\234=\204\005\202=\342\242G=\2548\327<t\237\317\273\355\357n\273\337)6\2735\344y\274,\336\206\275\257\331\220\275\371\330\230\275\022\036\255\275\341p9\275\366\224\204\275\377:\263\275\255I\322\275\031\246\260=\373\235;=\247\031\240\274\202A\332\275\276\260\200=\024s\215<\r\230u\275q\360\010\276\007\177\360<\327\002\016\275e\313\320\275\004\263\005\276A\205\326\274\\\361\267\275<\276\360\275c\024\310\275\335\034Z\275\204\007\201\273y\277;=\343\332\333=8\037{\275\240w!\275~L\333\273w\253\'=\237\352l\275m\364J\275~\025\343\274\231\230\020\274\320\002\310\273Z\241`\274\215c\247\273\370iL\274\212\032\207=\271\315\233=\223\304\000;\001k\371\275\003\ro=\013\031\262=AM\352<K\364\276\275_\371D=\377\200\244=\210h;=\233\223P\275z\241\014=3\254\246=\245A\215=\303^\324\273\371U\177\275\234\226\222\274\r\220\036=\273\"T\274\350\276u\275Fy0\275\373Ls=\036\3223=\212\017\300\274)\022\035\275\027\304\023=\000\342\236=\344\320 \274u\330\007\275\313\246B\274\004\020{=\0353S\275\030\002\253;\304Qa=|\256\215=[\311\037\275\326tS<\356TN=zF\316<\206d\245\273\215\024m=l\227K=\000\356\207\275{N9=W3\205=\303X,\274p\2130\276\304O\274\274\373\237\331\274Ae\370\274\251~\337\274\212\346A\275\357\217Y\275}\234n\275\306\215Z\275\221\033H\275\205\026k\275.\261}\275\376\375j\275\2253\362\274\230\353\027\275Xr\030\275\333\034\014\275d>\005\2777\3061\274\377\006.\275\211.\264\274\246\273\004\277\271\324U<B\177\253\273L\241\016=\214\264\003\277\025\327\244<J\221\256;j3/=H\254\022\277\010\313h\275\373/T\275\326)\217;2H\\<\377D\353<\253\260\323\273\031\213\305\274^\350K=e1\n\274\031\305\242\274\212V!\274f\3347=\344uD;37n<\345f\361<\230.\326\273\233\320Z:</\262<hO[\273\236\034\212\275\217\262\034\274\310\031\326<D+\234<V\302\2769\342\006q=\230\014\255=i\243\334<\026\025/=\352\331Z=M\\\035=\271\354/\275\002-=<(\353\000\275\265\353\235\275a\023\352\275\324*\325<\275\r\241\274!?e\275\252\364\255\2752v[=sd\274;\331R\036\275\031\331\223\275\265V\250=}=4=\2365\007\272\242\312(\275\227.\360=\261\353\253=\322\307>=\252W\232;\362\315.=\375\316)<\200T`<\217\363s=]\372\301\274r\211\237\275\203y\253\275\300\331?\274\2557\004\275\274\363\261\275\207\253\272\275\005\353\260\274w\255-<\232\200\357\273\205\214o\272\017p\027=\300\034\237=+M\301;\026\371\235\275\260\256\253\275@t|=,+\247\273\306p.\275\033v\026\275\310no=H\324\242\274>\365\210\274}\371\2549d\033J=\330\211\361\274Ir\254\273\206s(=\361r\003=\211\313\344:\306E\336\2741\2117\275\005\337*=?`C<\264\'\270\274\'Q*\275P^1=\016\342\377;[\274\356\274\177!3\275\330\244\007=\344\270\017\274W\307 \275\253GF\275\217\021\334\273\035{\201\275\3336_\275D\357\201=\3333!\275\037-f\2758\361\256<\206\000\371=?U\223\275\304^\316\274BR\201=\241By=~\223;\275\247K\013=l\306T=RrG\275/\326\225=\315\010q=\002\267><0v\244\274\356\317\241=\006\247&=\035\334\235\274<;\031\275\322\th=r\375\240\273\267\274\202\275=\212i\275A@q<\225\215S\275\334\\\305\275\234b\220\275H\230\254\275\350\025?\274\201Zb<|qh\273\331\233\243\2758\327\001\274i\251\201<B#:<o\346\264\275\254\025\241\274V\314?<H\266\227<\t\251\315\275=\017_\275\301\003\016\274c\022\'<\014\315\246\275Bi\351;\367\205\215= \331\205=\355\363\234\275G\377|\274)\372\265=1^\244=\311y\220\273)\005P\275\"\032\007<\306\317/=\025\003\366=\345I\324:\246\213\230\275\232\257W\275\373_\302:=B\310\274\365\356\363\274_\363\256;}\366C=\221\3736\273\210\007t\2749\2420=\365\227\240=\226\2759=\026\213\021=3\211\227=YL\017\274}\216&\274\3579\255\274~\373\354\274U\363\353;\035\022B=\250a\245<\2549\367\274A\376K<\003\272\177=_@\247\274\016\r`\275\031z\005=\004\267\234<=\343?\27549\003\275mT\237;\037\r\r\275\302 ;\275\021\340\264\274\233\014~\275\002\377\222\275\342\207\234\275$h\222\2756\351#\274\215Hg\274\252\200\231\274\321\323\210\274?\260\013=\3243\010=\330\343\007=\370o\014=\210d\033=\263z*=\227\371E=\270\354T=]+ \275kl\240\272\020n\354\275\352\271\337=\364\315\214=L\0040>\347}\004\2762-\036\275\241:\007=\201\337H>Qs\230\275g\033G\275@\317\002\276\237\215\332\274o\0233\274vhR>\307\374\211=\350\331\206=D\035\210=4-}=@\374\225=5m\214=O\264\241=\374\336\264=\007\016\n\274\025?t\274S\273v:\366u\013=\006\345\277\275\232\316\311\275\243\"\256\275\257\2544\275<Dz\275\323\216P\275\225Q^\275iz\214\275\2306\247\275\006\341}\275\374\273a\275\020\327[\275\274M\264\273su\324<\320\004\342<\3715\307<C\247\233=\317L\266=\274q\250=\'_u=|Bl\273\347r\275\274\t~\027\275p\361\037\275;\037\344\274\244\204S\275\223\272\210\275\030\r\200\275\213JO\275|\036\225\275\211k\264\275\303\210\245\275n\316n\2757\321\232\275w\232\264\275;Y\250\275\010\312\251\273\014\306S=\346*j=\"\010o\275\325\337\202\272k(\'=Pr\306<\031\016\324\275,\\O\272\024\375\006=\024\223@;\251\324\276\275\210\377<=\205\311\226=mg\254\274\334\365\245\275\350\305\241\276\253\036\234\276\320\234\237\276\365`\243\276/\227\322=\355\010\351=%6\310=\345\352\260=6\361\265=\215Z\303=k\305\246=(n\217=\243\244\266=f\240\251=\322\033\225=\377\335O=\006Y\355\275\344\231\265\275\277]Y\275\304\\\215\274\374\373\253\275vO_\275\004\337\001\274U\201\004=5\326G\275W\377P\274aU\r=s\306\217=\350E\005\274C\253\343<\316\376~=y\016\273=\333\342\007\275\337\001\224\275\t<\244\275(BQ\275\200\323\223;\322\003\017\275\310u|\275$%}\275d\340\265<\214\253\332\273_\336.\275\234y\214\275g\373\001=5{);\312 \017\275\225l\226\275SF\274\275\036\t\027\275D\307\026=V\227v=\331m\262\275\324yN\275r)\321<\235\t\214=\351\000\217\275\025\275\211\275r\233\267\273U\017J=\301\252A\275\354g\222\275x\224\003\275\270\325\232<\230\365\240=\225e]=!\3667=\244}\205=\323\354\204=\226-\233<\355\221\022:\276\026i<\241\234|=\204\213w<\330C\001<\022\277\306<\006\352\300=C\032\215=l\030\224=ic\312=\010\361\216\274(y,\275=\3640\275\345W\204\274`\006&\274e#\023\275\376j>\275\3273\320\274\0063\231\273\340\324\330\274$$8\275C\247\026\275<)\206\272l\253\250\274S\000&\275\334\025/\275D,\r\275%\342]\275r\304\"\275\315[p\274s\230\377\274\323\355\035\275\216Z\241\274\332X\226\273F\022\337\2749\021\233\274\376\325\317;\214\330I<[\001\351\274/u\371\273\305U\305<\3212\337<\246\270V=\013UU=\373\351\031=\030\r\240<\252\\\277<C\356\235<\341\001\317;\226\322*\274\007\230\035<O\233\202;\2511V\274\214\213\'\275\031\225\\;\304\232\201\273]P\220\274\010{2\275a\353\242<\2209j=\235\010:=82\207<\025:;\275\204K\213<\017\025e=\242P\254=\303\231$\275\356\ne\275\303\266\230\275\375m]<M\t\"=z \312;7a\211\275\037\016\227\275\210k\271<\244\2451=F\321\213=.\021\271=\256\314\2709w\360X<\022\003\013=(\276[=\023\351\221\274\030D5\274[\372\212;|\333\241<\212\217\000\275\376)\350\274^\375\262\274`\243I\274>\3513>\031xJ=J\031\004\2754\356\332\275\312N*=\023\332\353;\177\364\020<\333\261\000\275]F\233\275{\273\321\273\233c\032=v\213\255<\252\263\302\275:\374\025\274.g.=\276\230|=\205\331B>\277\267\234=x\361\255\275\027\246\205\275\205\333Z>\266\324\312=\336\024\215\275\206\0219\275\231\nk>\240\355\363=\323\303F\2758\353\346\274\032\275j>B#\375=q\344B\275-{\352\274HM \275!%\210\274R\376\034<\004\3279=&v\244\274\353\224\365\274K\335\004\275\301\036\331\274\272\370\"=\316\007\"=/m\243<\320\276\241\274l\300\033=\225\ty=\256H\253=\316~v=\236z\211\275\302[!=%\254&=.\014P\275xE\307\275\023\372U\272g\212\367\273]\264\272\2751\305\274\275\\\006\213;m\3550\274f\334\263\275` N\275\243\007w=\372\265T=z\237\341\274dQ\003\275\t\344<\275*\257b\275\252\272\\\275\314\024\034\275]\270U\275\243\274m\275\000sP\275\350\030\004\275\354r\371\274A5\337\274pW\260\274\213W\021\275\256\363\314\274\327\220\214\274\377CP\273^\372\032>\306I\003>\265N\336=\273\207\251=\226|\317=\201P\260=+\377w=\261\354\324<\2140,\273\262D_\274\330&\036\275j\016\202\275\034\351\264\275$\303\324\275\312v\355\275@\220\374\275B\315\016\276\200l\004\276\341;\375\275W\221\336\275@\246\351\275\006#\353\275\276\334\375\275^{\367\275M\025\346:\210\t\362\272\0371\317\274o=&\275\216*\346=~p\332=\000\244\235=\021\213^=\030\255S\275k\244.\275U\032o\275\241:\232\275\024m\244\275[z\"\275\335W\025\275_\337X\275Y\312\010\276<\314\214\275\201\261\372\274\017\251\263\274\356\317B\276\323\016\354\275j\373B\275 \332\022\274\342B5=\240\334\200\275rC\355\275\376\362\355\2753i\013>\"\3364=\272\316w\274>C+\275\237\252\004>W\216j=\2201\340<\272~\000=\305\324\356=Z\262\350<\203\311\343\274zl.\274\241\352\202<QL\261<vZ\267<b\324\317<\246\343\206<\214a\246<*\330\231<\241[\235<\314R\212\274\216\372\253\274F{\350\274\277\343\367\274hz\213\275\372\322\242\275\355\313\276\275\351k\313\275G)p\275q\335<<\342$\372\272(V`\274\236\371\210\275\243s\212;\ty\023<\0176\264\274V\361\214\275\225\022\203\274\337\361\326<0\222\037\275\333T\220\275\\\375\244\275\342\027{<8\222N\273\031n\035\275\342\030)\2754A1\275\316L\037\275\035;5\2758\214I\275\317\033G\275\205\266(\275\243\t/\275egF\275\237\341?\275\373\t \275m\241\023\275\356\374$\275x\376!\275\263\030\n\275\034\244\240\275\325\nY\275\205:P=\\\r\370=\327\255\227\275I\257\"\275y\364\264=\330\203!>.\365\235\275(84\275\216\t\272=\2464)>\201^\253\275X\210j\275\247vy=\3721\024>m\213\007=s\024|=\354\343\270=\' \275=\226KQ=Mc\"=\236\023\277<evp\273\273\235\256<\306\026\346\274`\350Z\275\203\270k\275\233\216\272\274\361\274=\275\241\014!\2754\253\004\275\310b<\275/Ec\275\375\rh\275\202Ko\275n\276\201\275\017\342\206\275\357\233w\275\343\016e\275<\272S\275\262\273J\275\277\204\024\275\336\020\321\274\031\312\346\274c\304\247\274\005Jq:\205\300\204<b\252\224>\035\346\227>!n\227>&\305\222>\225]\233>\251\373\240>\316B\241>\265\341\231>\254P\234>\025\334\241>{\360\241>O\002\233>~L\230>T\352\231>\330R\231>\333\341\225>\241M\264\274\372:\276\274{\327\264\274\271\323\237\274*\246\235\274\264\210\251\274]\021\236\274\014\251\214\274R\212~\274\025\235\220\274\220\334\211\274\260\322q\274\324Y0\274\377\314\\\274\223\361h\274W\215J\274\277\211R\276V&\235\275OT\211\275g1\001\276N\033\312\275\367\031D>\236\002,>\325\214\223<\255\233\300\275\\\201+>\300\366\322=\377\312\354<\216\336\326\275\305\310P<\037\221i<\260\224#<\317v\'\276)n\223\2756\326v=o\t >E\367g\275i\304\007=\177\377\360<\367lY=\222\207T=\237\260\261<r\376\213\275e\304\003\275U\"\341=z<\224<8Ly\275$\n\230\275"
      }
    }
  }
}
node {
  name: "f7"
  op: "Const"
  attr {
    key: "dtype"
    value {
      type: DT_FLOAT
    }
  }
  attr {
    key: "value"
    value {
      tensor {
        dtype: DT_FLOAT
        tensor_shape {
          dim {
            size: 1
          }
          dim {
            size: 1
          }
          dim {
            size: 12
          }
          dim {
            size: 56
          }
        }
        tensor_content: "\215Mv\2735\023p>tM\347\275|\020\267=\212\211\n\275g\3350\277\333 \252\275\020\260\256<\237\250\233=Jc\355\275\206\005\222=\345u\031\275\306\373\321\272\321;\216\275\233\277\371\274U+T>V\270\301<L\237\243=\n\022$=\266\005@=qU\275\276\265\004\366\275{\311\202;\210\003\246\275~Y\024\276\332\2678\274R\251A\276^b\363\276Q\244\332\275\266.\324\273\252N\373\274\030\207\014\276\311\374\314>\021\2639\276\366w\273<\022\264\206>\347\260\373=\263\273\'<8\217\355\274:W\376\276@\321\327\275\272\270:>\310\370E\275K\036\007>F\224\006=\232}\245\276]Yv>D}u\277\001\020?\2755\200\350=\310\237\000\276\017j\225>\270\366\252\271,\365\000=\261\007\230=\251\361\242\275I\273\n>\205\035\006\274\232\210\216=\035\341$>ill>\037\362`=\347V\377\274\247r\314=@\005\016=\370\r\201\275\223eR>\034\370T>\021\312\306\275\272\t\222=\344\364o\274\217D\261\275\327t\215=\001Gr\274x\346f\274w\331\300<#\0330>G\267\242>\'\356|=\265\024\335=m\323\002>\206=:>\273(\341<H\277i\277u\227;>\257N\200\276\310\355o\274C\343\234> A\274>\374CC>\235\026L\276\360^\032\276\264V\263\276\352}\005=\221NL=\036\231\005?\357\035\002>\001\313:>{n\354=|\352\373\275\276\235=>\313\272\301=\376\205t\275\212M\236>Z\247\304<\020J\334\275%\252?=\032\016\220\275\007\007\214;\302\002\005=\233\261\\>\276\255\345\274\351I\261=(\213)=\361\374)=y\'\024=x\377\257\275ri\215\276\2320\364\275\200\376$>\301I\233\275\265\036\303\2713`j=,\314d;\204\305v\275\2162\316\274\342#!<m\350\315=\265\357\177\274\375\301\025<?=\037\275-\361\224<\305\334\033>\013\220\000>(Gx\275\356\271\025\275,\240\217>=\270>>\252\216\"=\204)\274\276\367\226\212>\r\364\340\276\305\222/=\024\210.>\232\202\036\276\020\227\035\276\rp\312\275,\360\201=\231H>\276]\314\007\276\205t\361\275,\345\315\276My\010\275B\010\257\273%\3752>G\323?\275\236\316U=Xg\375\275\351\207&\276\271\273\017\274\016C\326\275\363\273\331\275\260b\263\276\315t\036>\312D\325\273;9\004>\303\351\217=a\300\233\273W\"\316\275|\351\212=\273\363\346\274\001\2725\274`P9=:\034\036\276\335\350\n\27441y\275@\275)=\363\353\317\274\036\373U=\262\r\233\275\241Q\212=)\305\362\274\343\302\232\275\257\022.\274\322\001\212\274 $\305\275\023\227\305\275\321%i<\234\264o\275K\324\322\274^v\327\274\240]\331;:\310\201\275\t\242\334\275=\331\240<\365\246\001\276\346\361g\275\201\275\036\276~\267\017\275\376\367Q\274\256\006\273\275#\315\t\275?35=\262\326v\275\254\274\350\275\250\301\257<\223\002\225\275O\275\022\276\231\033\225=\247\212B=8\"\206\275w\215{\275\351\027\203=;\203r<\177\304\026=<\246\247=W\346\226\275U\331\257\275\374<\371\274\256eD\275\3156\343>\346\001\226>\274\214f?\360)\342\274\235\316\244\2769\371T>y\034r\276@?\302\275\'\324\030>6_W\276c\222\013>\347\276\316\276,\214\t>\307~k\276\222\242\232>\330(\245\275\260\004C\276H\240X=\332c\262\276\256\361\334\275\007\021\245=\016\267\346\275\233\031y\276\341Cs>>\345V\276\205<\310=(\0007\273\367\3613>\037\234\273=\312\251\354\276\313`\036>\336\307[?\344\321\235\274\301\211s\276\374i\372\274I\200\343=\334k\366\274\221\266\344\275y\226\001\276\2505#\276\017S\t\276\360\3220\276\003\360L\276\273\374\004\276/6\016>d)9\275\276\321\200\276\266M\224\276i\312\210>\356s\373<\021\341\207>m\353\003>\216\241.>\236B\245\276\000\353\235\275aH\267<B\206\363\274\241\336\215\275\277^\335>\214\354\223=@\004\267\275\345\345\031>D\337B<\364\"\350=\364q\002\276\240r\224>pS1\276\326\234\010\275VsV\275\363%p<\226\231\017<H\323\373\276\240P\222\274E\025C>\341\017\035\275\303\353z\276(1\213<\353\215\310<\305?\313\276u\013*>;]\326>\244\007;\276\211TJ=\252F\003\276r\003\313\275\232S\324<O\353\350=?k\326\276N~\306;&\235\037=\250\004\244>\247\037\226=M\314\t\277Z\005\036\276\365[\002\276\326\355I>\311\315\201>\341eS>\002\250[=\243n\262;Kuv=\023\223/\276\021\242\324=e\0259=\264\274\000>\305*\223=\276\355K>51\307>I8\314\275-\312\207\275\206\315\025>\305\323s\276(#\251<7H\206<\310\320\316=#\351\315\275\304\317)\2762.\024\276\236\3046\277\221\312M\276\271\025\305\276e0\006\276\273\205\340>i\006.>5\227\313;\375\004<\276\276(\217>\305P\022>B\213u\276\363S\216\2766\201\222\276x\343l\276\220\210\247\275~4.\274}\333\267=uh\277\275PG\271\276\330\316\017<]#\244\275\266\212=\276%\232k\275\235\007s\275m 1\276\\\331\243\300\002tw>\006\010\200;}Q\001\275+\351><\n\303\\\276\375\270V>\345\336\226\276\026\243\323<\370b\253>\212gI\277\351\241\013\276\366\211/=\265\245\211>\332\374\020\275\275\335t=\223D\373\275>\034\322;)O\260\275U\332\001\276`A\217\276\032\323\026\276\037\206\230\276\230Ic\275\241\030O\276%\375\252\274\215\327\020>W\362\030>\240\000\307>?\255~\276g\247\200\276\006+I>\230\010\205\275\003\307\350=8\203>\277Ew\214\276\250\317\022\276\030\340\203=\030\244\000\276\000\271\003\276\354(\307\276\267\313\214=\025\031\035\276\304\272\311\276\021Dh\276\277\237R\276qS\245\276d\010\327\276\024N\215\276\276\200\020\277\005\034v\276\034\177;\276\340\330\337\275d\304~\276\355\340\306\276 \206\221\2767\271\232\2770\353\222\276*l\020\277r\203\202\276:\201\251\274\232\023\000\277Z\016\322\276Pr\026\275?\034F\277+\3219\277 \372\214>m\371B\276 P:\277\367\211Y>s6\216\276\217l\032\275\255\243\024\276\353\256\254<\225rZ\274\340V\003\276\361g$\276R\037\231\276\036vS\276\2246\272\276\017\024\200\276J\200#<\326u\026\276\254\301\000>\312\356\216\276\371\317\265=|\244\366\275\247\210L<\225\036\212\275\\<\345\275\002\345\r>\314B\020>\327\347O>p\310\220?\220\300\376=x)6>-\200\002\274<D\035=\3706\210>7g!\277\026\355\r>w\003Z\275\221\243\013\273\024\275J>\310\177\350\276q\3146>(\230?\276\242\255\355=\261\3765\276s\000\247\275\234J\303\276\342\357\304<g\2618\275ib\t=\031\277X>c\037r>SBU>\213\377\'\274\007\325R\273\265e\233>\243z\245>\230\n\n>d\025\236\273M\010\320\275meQ=}\035@?\316\203\"\276,T\275>\016\343\270>,\360\217\275\276\321\203>\216\322/\276l\370\221>\344\376\024>\217,;=\225W\235\275%Q\004=$\022\027<\004\254<\276\335\243\263<\033\317\306=\337n\276\274]@ \276\314\003\245=\026\356\010\276c\n\034\276\220\367\207\2765e*\276\205\301\302\273h\324\r\277\236R\306\275\276\006\210<3\025\206\275^\236\001\275\272\322\004\276<\266\002>\324|5>a\301\\\276h\332\303\276I\223A\276\034+\001\277\376 \247\276\305\352\345;\347\"$\275\302\254\374\275b\262E\275\224\307\341=\020\340;\275\240q\244>m\016\\>\306\327%;w\030\025>\033\301\t>\311\346\345<\307\331\360>a\377\031\276\014\032\037\275\241\013\346=\360Na\275s\177\332=\362\240\272\276p\311\364=M=7>\376F\021\276>\212\'=\242\035\030=i\314\343\275\316I\036\276H\344\325\275<>&>\263\t[=U\302\001;q[\024>\347\215\210\274\035W7<\271\316\306=\035\027\251<\250\001\204\275\256_\215\275\031\t\023\276@W!\274\251\021\337=\223T=>\2323W>6\243\201\273Ds\324\275x\322@=\004&\237=\006\210\213=M\021\313\274H79>\306\250\251=#\312\3579\211\"\225>\232D\010< \002\273<\3600-\275g\363\352>E\3456\276K\216H\276\375~*\276;$\375\274\311\315\n\2763Hp>\235\221\020>\t\370\323\276\2735\212\275X\033\337\275\021\353k= k\211>\\\253\202\275\356\241\311\276nh\017>\331\326\210=\200?\002=\223w\007=\342?P\276\323#\253=Q\375\243\274}`\035=\323\260\316\275\316o\000\276N8\265\2756\344\035=*d\032=\367\330s\276\2406\245=E\352->\003S\006>\247\305\206\274\371Y\206<Z\314\340=\353\373\357\274;\312\212\275x\356\024>\343\022%;\252\343K=\326\357b<\3006\233\276\025\032>=<\352\361=1`\232=\t\306\366<\334<\207;\327a\335\275\233\276\225;\006e\246\276\251\216_\275?\363\263=\213\365H=J\300\'\276\0041\260\274X{K=\271\016\302<\2547\214\276\317\225\\\272\252\210\027\276\351>\224\276\344\263\276=E\010\200\276Q\337w\275g\366]\276\355\253\334=!\245\003>_-I\2767\2542\275\356\314$\275m\207}\276\277c\030\276(M\225<k?\306=\320-\237;@<\036>\tr\021\274f\226Y>\300\035\017\275\006\034e>v\227s=\317\032z=\334\377.>\032\377\021\276\325\242\230>cV*\276\344\302\203>*y:>\032m\264<}\340\243:#Y\033>\374Y%\275"
      }
    }
  }
}
node {
  name: "f2"
  op: "Const"
  attr {
    key: "dtype"
    value {
      type: DT_FLOAT
    }
  }
  attr {
    key: "value"
    value {
      tensor {
        dtype: DT_FLOAT
        tensor_shape {
          dim {
            size: 1
          }
          dim {
            size: 1
          }
          dim {
            size: 56
          }
          dim {
            size: 12
          }
        }
        tensor_content: "5u\201\274\301\356\265\275\252\237\215=\3305A>\303\027\226\274Rn\237\276\342V\265\275R\320\002\272sG\316>\333A\r\275\034\266\266>,\337V=\005\021]\275z\335\013\276k\233\374\275\361 \222>j\227\r>:\031\'>U\214.\273\234X\'\273$\027.\275\"\225\013>\300M\310;\327\266.\276\201\033\004\274M\356\032\275\207$9<\306\022\305\275\240\317\320=*\270\210\275\266_\360=\306d\247<\355_[\276\227D\313;\216\004\215\275r/7\275O\360z\276g\214\312\274\020\341\300\274i\356\300<$9\200<j\363\371<}\230\342=\256H\347\274d\205\215\274\272+\235\274|RJ>\372\213\232\275\352V\326\275\217)\324\274\206g:>\353\322\220\2765\347\213>\t\n\237\276\230\206E>\n\374\332\275\302n\220\276\003\217\220;\242\303\013=\362\245\341\275\021p\257=\263\255[\275\322\032D\276\344\207\205>\233\236\233\275QXY\276u|\006>\215\272\013\275ps\311=K\330\315;\331\246\232=\230t\001\2761K\032\276!\256\024\275-!\343<\211Cs\275\254\334[\276\245\246e\276\262\355\246\274\t\302\302=Ws\251=a,\233\273\314\355\'<\202\245e\274\004t\311<\206\241;<\205\336\252\273Y\371\025\276\033^\275=Xz\201\275\257\376\323=Vr\226=\250A\264\275\237\242\304\274\207\327$\275jK\241\275\305\276P\275tF\027=\200z\033\276j\314\234=2\336\177\276\026CM\274=X\333>Ny\210=Q\202\302\275\212\252P<)\024\342\273\312gI>\'{O=+V\032\275\215\337\005\276X\t\363\275L\363!>\2257\021=^\"\341\275\252\372\034>\203W\356=\351\314\235<\232E-\275P$\255>\013\013\202=I\001\204>\214\026p=\235\215\002>\024\316\230\275\353\213\t\276\024\323\233\275\353\252\271=r\331\224>\207\374\246<\273\026;>\327$?\276\250?\336\273\336\326\304\274\027\261\026\275G\"\276=\337\327\037>\226\304[=Vh\210>k\331\271=\212Z\031\276\024\017\275\274\016S\374=,\221\005\277\325a\225\275S\3256=\'\216=\275f\034V;gL\003\276G\206R>,u\275\275$\321\n\275\0038\220=v\010K\273|\210\376\273r\337\311<pA\007=\356\254\262<\271{G=_\342T\275\254\221/>X\227>\274\301>)>?\342\232>\330d\373<22a\273\360\037\310\275\351u\231=\372=j>\276\013\236:\275\216\200\275:\217|\275\023\014\215>\215\222\203<\223\370\335\275\004\366@\276\335\270\013>\351B3\274\307\364I\276lr\263\274r\276\004>\257\261\021=\016/\">\232\342\023=b\240V>\2304\331=\366\3344\276\232\322\'>_\200\353=\355e\211<R(\370\274\370\245\007\276>\'\266\272\206s\220<\241\246\312\275\302-\201:\376\"\360=,\010\023;\362\016\340\275\352\010\347\275i\017->\036\036%=\306\2763=D\347^=\037 \234\274p\207\212\273\3217\013\276\267\353\307<&\222<\275\365\351\034\275\023tk\275d\361\225=urH>\rX\323\273O\226#\274\333\321\203=\207Cj\275\314\323\226\273\222\351\037\275\277\326\216\274v\351f\275\300\324\000>_\273\026\275G\240\207>\247W\220\275\272\325n<\362\316\277=\306P\213\276\365\350\352\274K\274\032=\022\016O\274\373\177\004\276\324Ms\276(\"\004>E\361\026\276N\374\253=(W\026=E\256\033\275\260J)>\246\200\211\275Y\314Y=6\350\027=\350\006&\275\202c\323\275\312 a=\356\340\213\275\256\022\346\275 ;\016=\246\257\331=q\024\3539\266\010t>Hy\221\276f\033\'\276\273\027y\275\002\245K=\301\213\244\275\330\234\017\276\362\"\373;\325\263\264;\203iA\275\034\240\022=\031\000\261\273\"\237\212=\020\315A\276\t\317(\276\365\303\017=\354\222\316\275\302\275\233<\206\367\016\273\322\3239\276\231Jq\276\322z\014\276\3149H\276\217O\262;&\024e\275\t\005\256\276\226\343\200\275Bf\356<\355\003\365\2750-\343<^3\214=\376G\314<\345\240\001>q\313\006>,\255\020\276\257\017\231<Wr\367<\363\005\250>\253D\303\2755U\003=T\216u\275\216\007S>\036\033\'=B\013\017=\320\353\006>\233\232)>\213\330]>\330#\273\274\2104U\276\022[\263\275\374\326Z=\256\357\371;{v\024<\010<7>m\370\336\275\317\275p>5\2050=\376\366\262\274\251=\000\276w~\342:q\014\343=u\\L\276\247)d\276\035\361\266=M=\204=W\001/<\370\346R\276\355\021\265=\3439!\276\n$\004>\347\207\203\274%t\036<\216\267\366\275\236\341(=+\312\r>\356\022E\276\367V\237;p\034\035>\004\244\230>\022\221v>&{Y=\351\237\371=\203\250\301=\017\255\253\274B\272\324\275p\3469\276T&n\275\001\315\t\276?\320\264>\2369 \276\274>\232=pC\r\276\311y\221\276\2774\225\2761\221E\275_\306\331=\010o\272\274lb\002>xeu>\030\351F=#\216\247<\376.*\276v\347\232\275\232[\327\276\221\202v\275K\331\264\275\033_\200=D\242+\275\007\256\027>\007\t\344\274\320<+>.f\n\276\006kZ\275(\327\261<\221tj<*\234->\357\316v=\213\245\343=\363\315\376\275p\346W<\317\367\343=\3400\"=\236 \311\275\023\270\\=X\035\336=\364\350\002\276S\353\020\275\253\253\242\275y7]\276\316\361\342\275\262)\317\275^\253z\273\263\300<\275\324-\026>z\376\236>(\\f=N:1\276W\321\240>\271\322\030\276Z\266\264=\267I\360=\343\004A>\2059\310\275\252\272\216\274h\255H>/q\257\276\000\033\344\274\337~9\2755\254\177\275\340\014\251=\007\256\346\275\3371\260=\377>\347=\010\211\245\276;\017\364\275\033\250\266<\252{\210=EiL\276\314N\364\274n\333t\274\277\005\262=\006\016\227\276\377\206\343\2758kD>\344l\007\276\343\304p;ZR\023\276s\255\036\274\342\310\'\275\234\201*\275\023\3706>\034\032\221\275\004\205H\275\"\027\342>\374\346\347\275\333\017x\276\256\277\340\275\331\225\227>4\271R>\321\005\217</\231\020>\n\3425<\\M\207\276G=\203=;k\253=\370\237\204\276/\255x=\341\000\363=\300j:>\003\355\206\274Q\267+=\227\216\312<S\\A\275\263\\n\276\371<\202\276v\367 \2755\034\370\272>\220\243<_\322\366\273kd\253<\365BE>\210\231d\276%\304r=?$\322\272M\315\364<w\244\026<u\024\366;\203\214@<s\017\243\273s2\336=\270i|\274E\327\255;#\346`>\362\331\233\275\225\337\263\276iK\211;l\031\256<\036\023\332\275\265\365\306>,\r\345;\317\014\025\274\327\201\220\276\032\221\262>\257Y\315\276\364\363\246>P^t=i\375\035\277/\241\033:\250\357\253\276U\262\210>\306O}<y\235\014\276\2034\273\275\244A\361\270;\330}\274\031x\033\276\240\270c\273\"%\263\276\260\277/\276\2066\265=L1@<H\251\226\275\267{\243\275\241\237\306\275\244\325D\276%M=\276\301\'P\275\225\270\013<\273\275\253\275\037 {\274\331\321\310\275\007\270\322;]\364\006>\370mf\275*w4\276\230a\006\274\216\307\223</;\303=@6\'\276A\372\003\276!\021\234\275\304\267\350\275\241\250?\276>\251`\274\005\316\210>\352\315\203=8D\314=\357\224\250=\013\000\333\275\017\230];E\005\272=i\201.>\303\375\225\275\260\036\330\274!\027P\275\217\303\035<\325\310W>i\334.\276\274=U\276e\021e\275\356\354#=%gp=g\265F<|\371t=\235\251\222>T\022\211\274\253vd\276ix)\274@>D\276\243\342%=G\264c\275\363\264\232\273\274{y\274\245Tg\275P\326M>\213@\356<\002\t)=\'\223\372;\246R\276=\\\201\372<\230\341\021\274d\017\261\275S}d\273`\275\356\274\267\222\r\276\306iK= \271\024\276\t\255\336<|\321\247\275\220\252J\276*\377\027\276\035\307\367<\334l\001>`\250\023\275pf\271=-R\266\274\226x}\276Z<\371\274C\037\215<D$\272\276`\213\030=\r\304\203=\nX\226=[\372\315:\2451!=\373c\">\200\3175>R\232z>\203\306O\274V\322\036\276\216\235\331:1\262w\275aR\306\272\227\354\354=\006<A>6\3137;fI~=\364\252\304\274H9\303>)\002\210=\021\260\312\275\375T\010\275Q]\203=\371\034\230\276+U\310\274%w\021\273\315\351\225\276\350\033\213\275\274t\202>\221o\220\276W\t\220>\304s\242\274\366\213x\275\272\005>>`\031\236\275\035-\364\275@\375\300=\\U\315=\314\032\211>\217\'-;\027?\215\272\225T\330\275\322\345\020\276\347\020\031\275/i\204\274\230\314\n>\221\234\032<0\323\035\276\226\2237\274\020-J\276\327\t\340=\000aj\272\003Pu>\214\017\031>p\203\230\273R\377\367\274\360\350_\2747\3476\276_S\010>l\2749>\355\235~>\247+\367=\332\336a\276\350\224\370\272\374\263N=\005\266\233>\374\343\014>\"\263\337<\274\024\024\276\013\307K=H\334#\274Z\017\203=\007\304\024<\357\240\001>\223\005J>\000\212\222\272p:]\275\254\255^\275\007\214\333<\262O\367\275[sG\275.\022\244<\247s\335<\300\026\375;\230\300\236=\r\222\017\27578\017\275\03240>\234\211\'<\037G\364\274=\255]=\243#\360<\2177\017<\023\245\036\275\251z\256\275\024\361\324\276\311Z\313>\275[\003\2761\352\275=T\260\206<\275\027\027\276\327\\q>"
      }
    }
  }
}
node {
  name: "f1"
  op: "Const"
  attr {
    key: "dtype"
    value {
      type: DT_FLOAT
    }
  }
  attr {
    key: "value"
    value {
      tensor {
        dtype: DT_FLOAT
        tensor_shape {
          dim {
            size: 5
          }
          dim {
            size: 5
          }
          dim {
            size: 1
          }
          dim {
            size: 56
          }
        }
