node {
  name: "Const"
  op: "Const"
  attr {
    key: "dtype"
    value {
      type: DT_FLOAT
    }
  }
  attr {
    key: "value"
    value {
      tensor {
        dtype: DT_FLOAT
        tensor_shape {
          dim {
            size: 56
          }
          dim {
            size: 1
          }
          dim {
            size: 1
          }
        }
        tensor_content: "!X\236>\000\000\200>*\004\223>#\356\026@|x\235>P\331x>M\326\314?]2\241>\000\000\200>)#|>\000\000\200>\000\000\200>\026u~>\315\036\201>E!\230>\002\025\330>\330\264\330>0\311\304\274\010\226\225>\000\000\200>.W\275>\246vl>,\246q>\312\262\264>%5^\277Oo\005\277RL&<w\004\254>Xq\246>\005\305\243>\364\354\'\274X\355\333>\352\023\263>A\330\267\276\0072\242>\324Vp>\262\343\264>\265\207\245>[\026\362>\000\000\200>$\224\276>z\255\337>F\013\007\277A\230\243>\000\000\200>\000\000\200>Oy\317>\327vb\276\223\377\177>.\r\315>\000\000\200>\000\000\200>\316S\261>M\230N?\000\000\200>\262e\253>"
      }
    }
  }
}
node {
  name: "Const_1"
  op: "Const"
  attr {
    key: "dtype"
    value {
      type: DT_FLOAT
    }
  }
  attr {
    key: "value"
    value {
      tensor {
        dtype: DT_FLOAT
        tensor_shape {
          dim {
            size: 12
          }
          dim {
            size: 1
          }
          dim {
            size: 1
          }
        }
        tensor_content: "3\021}>\212wx\276\223\356\321>r\217\332?\027\330\233>\272\'\305>\2502\313\274{\005\333>\232\n\241>\341D\326>\377\211\215>\366\"\201>"
      }
    }
  }
}
node {
  name: "Const_2"
  op: "Const"
  attr {
    key: "dtype"
    value {
      type: DT_FLOAT
    }
  }
  attr {
    key: "value"
    value {
      tensor {
        dtype: DT_FLOAT
        tensor_shape {
          dim {
            size: 12
          }
          dim {
            size: 1
          }
          dim {
            size: 1
          }
        }
        tensor_content: "g\034\215>|K\206>\362&\300\276\177\035W\276@\221\277\276p\\\262\276\212\202(\276?Q\213>\005T\212>v\031S?\337\211d\277\300Z\020\276"
      }
    }
  }
}
node {
  name: "Const_3"
  op: "Const"
  attr {
    key: "dtype"
    value {
      type: DT_FLOAT
    }
  }
  attr {
    key: "value"
    value {
      tensor {
        dtype: DT_FLOAT
        tensor_shape {
          dim {
            size: 12
          }
          dim {
            size: 1
          }
          dim {
            size: 1
          }
        }
        tensor_content: "1)\332=C\222L\2761\231\262>\264\344\023?\267\345\230>\336<#\277\3047|?(n\204?\250-\024\276\2635j>\227%\321>\350\333\262>"
      }
    }
  }
}
node {
  name: "Const_4"
  op: "Const"
  attr {
    key: "dtype"
    value {
      type: DT_FLOAT
    }
  }
  attr {
    key: "value"
    value {
      tensor {
        dtype: DT_FLOAT
        tensor_shape {
          dim {
            size: 12
          }
          dim {
            size: 1
          }
          dim {
            size: 1
          }
        }
        tensor_content: "Q\363(>J`\005@$\031\036?\223\267\262>\316~|??rB\277\025o\006>U-t\276.8\267>RVZ>\242^ \275\376*\375\273"
      }
    }
  }
}
node {
  name: "Const_5"
  op: "Const"
  attr {
    key: "dtype"
    value {
      type: DT_FLOAT
    }
  }
  attr {
    key: "value"
    value {
      tensor {
        dtype: DT_FLOAT
        tensor_shape {
          dim {
            size: 12
          }
          dim {
            size: 1
          }
          dim {
            size: 1
          }
        }
        tensor_content: "X&\022?\272l%>2\000\n>,{\257=1|;?\204%\210>\246\215\254?0\343\234?\317\273\232>\271\213\201?o\247\026>\317\273\316>"
      }
    }
  }
}
node {
  name: "Const_6"
  op: "Const"
  attr {
    key: "dtype"
    value {
      type: DT_FLOAT
    }
  }
  attr {
    key: "value"
    value {
      tensor {
        dtype: DT_FLOAT
        tensor_shape {
          dim {
            size: 56
          }
          dim {
            size: 1
          }
          dim {
            size: 1
          }
        }
        tensor_content: "k\207\206>\216\372Q?\323\326\331?\327@\305?\037g\332\277\330\326\326>\243\210]>M\177\246>\316&\220>J\306\232?\212\002\n=\221\027\202>\361\325\201>\201>\221>\205L\'>\027o\254>\342\005\014?/\270\207>\337\307\204\275\224w\257\275\014\237\225>\230\005q=j\205\335\275\251\262\177>-\270)?\033n\207>\224\257\'\2769\237|>P\241\312?B\330\242=3\260\205>\277\366\210\277Y_\207>/Q\213>q!)<=\353\211>.\030\202=\256\006\227>\036\030\375\275\230\276\325\274\344G0>\032\227\t\277\260\227c>.0~>\2327\206>rI\341>\213\r\335>\371W\032=\006K\203>\270\301\210>\341\033(\277.\014\203\273\362>\341\274\022\201\206>\357\313\211>\360\323\214>"
      }
    }
  }
}
node {
  name: "Const_7"
  op: "Const"
  attr {
    key: "dtype"
    value {
      type: DT_FLOAT
    }
  }
  attr {
    key: "value"
    value {
      tensor {
        dtype: DT_FLOAT
        tensor_shape {
          dim {
            size: 56
          }
        }
        tensor_content: "L\r;\276\037)\016>\373\177\264\274x\2334>\333\3476\275\264g\330=eZ7>\331\332\n\276(\362T>\030\321\312=y\037C>\006\374%>-\301\n=\2447\210>;\217\230\275\230B\203<C\301\032\276\321\363\251<\361,[>],\021>g\326\204\275\3225\206\276\351\032\373\273\264\373\343=O\261\017=_\325\022=s\376\004\2741r\\=\036n0\276\3736\020\275jK\333\273\375\315\373\275\203\037\3159\210\334\374<YX\005\276\014n\307=\365uo\276\202^\253\2751\216\313\274\374\0072= ~;\275\336O \276\312k\021=\026\021d\276_9\330=\331$9>J\301\237<t2\026=\t\335\244<\363I\234;\375\210\027>\351Z\212=s\252\357\275\010G\032>\307\277\365=K\037\240\275"
      }
    }
  }
}
node {
  name: "Const_8"
  op: "Const"
  attr {
    key: "dtype"
    value {
      type: DT_FLOAT
    }
  }
  attr {
    key: "value"
    value {
      tensor {
        dtype: DT_FLOAT
        tensor_shape {
          dim {
            size: 56
          }
          dim {
            size: 1
          }
          dim {
            size: 5
          }
          dim {
            size: 5
          }
        }
        tensor_content: "9i\251\274\272T\212\275o\026!\275\252\224\221\275\352D3<#\020\261\275n\335\353\274\345O\214\274\355x\314\274c*\210\275\\\246\222\275W\007\270\274\333\245\263>\027\030\212\274\257\330/\275\320E\004\275\251\336\361\274!yE<\220\360\030\2752GQ\275\024_\311\274\217\366\030\27501\224\275I\2428<\313\"\027=\3017d\273g\tB<\355\263\203=}\035S=\264\2314\2752\204V=\'\217Y=\256\332y=&\253==\200p~<\010\210\215=\254\016\010;X\030\234>\031\231\337\274\245\260u=\333\n9=O\250\370<\357\341\367\274\321l\321<q~%=\0104\201;!\332\267<\253J\261=\022\337Q=d\303\243\274\350\251\342\273vP\177=\251\253\262=\335\0344=\265\000\014<\326w2=^E+\274\n\353\213\275\252\336\034\275\024zL=\267C\226=\233\275\030\275R6\337\276\211\001\245\274E\\\220=0\264f=\007f$\275\364oP\275\244~R\275A\317?=\231/\203<\355\273\026=\377\341o=,\215\205=\\\253Q<\001\221\002<\230\316\227==\3711=\205\215k=\274\270\210<\222\304}=\227\327\207\275\224\326\213\275\312\240A8\374=\220=\031&F=\371\303\217\275\346O\331\276\264lf\275\2261i=\"\203\240=;\355\310\274\2642\222\275\200>\232<\004>\207=\010j\367;\301\355\223=\272-\220=\202\2043=J\014\004<\326\376\021\275\374\367\267\275#z\321\275\246\263\246\275-k\263\274\224Q~\275\277\016\177\273\273\345\031<\201+\351\274\330\217\243\275\375Y\367\275\245Zj\274\032\274\211\276\241\331\376<G\234\324\275r\221F\275gU\346\274W\037\022=\243\373);\322\315\336\275\205\351\303\274\376R\317\275\305\206\221\275L\243s\275Q\323\037\274\035\326\232\274\365\310\246<[\344[=\205\252\304<\364X\212\275?\274\224=dU\247=\327BO=\252\313d=\346+==\332\206j=O\246\242<\213Q\202\276B@\212=\2225\275=_\022\201\274\361`\214=\250\322\216<\345\220U=\267z\007=\303\005\315\27542v=\271B\273=R\014\237\274}\207\030\275\323\206\260=\221\216\251=\340\327\027=&\253\236=h\t\252=\223\351_=\371@\223;0\025\274\275\331\243\266\274\361\010\014=[\347\037=\t\262G\275\226\331\333\276\314\336D\275`\206\253=\234^L=M\211\372;\014\364M\275\226\177\267<m\202\221=$-2=>\373q=Z\375\346=!\260\313=\034\317\t<\267\305\224<\262\037\216:\256\352$\275A\353\031\274\332U\216=\202\310\234\273\315^\271\275\025\202\275\275\244\321\231\275\013E1=~\207^\274\277\327\350:6\202\215\276lc\264\274_\202\250\275/\373\017\275\371\212\260\275oA?<\222\'0\275e\207I\274\325lN=\033\207\273;\311\327\213\275\367\200\256\274M\206P<\264n\010\275\327Lx=\333\257\262<\302\226L:\201\177\321\275\245\260j=\034\353\235=\265l-=\ro\260=;5\020=0X\003=\211V\221=\322h5\276%\225\212=G\233\005=\242\366.\275\010\360&=:\314\217=j\335M=s,S=]oI\275\312\253\257<\372\312\273=\320\245r<\037\017\310\274\264\241i<{\006o\273\031h\373<\374\240\266<\236\303\365<\362w\177<\240S\327\272\314\3131\275\277:@\275;\266\232<\214\360\226\274<\356\310\275\263S\255>\332f\242\275s\253.\273O9\204=3\257\007=\030\236\332\275/\273\231\273\336\233r\273C\326x<\202\2344\274\366\031M<\300\265\026=\204\242\377\274}@\210\2750w\204\274\001\0056=\243\340\260<\013>\300\275a\004\230<S\242\003>\006hL=\340>\374=\371\216\215=\344\304\217=\231\304\237=\rD\203\276\307v\265=g#\311=\224\224\204:\255{\250=\314\374w=\322i|=\333_\224=\357h\242\275\272\024f\274\3327\353=}\205P\274\336\267\033\275||\323\274\237\272\334<tTJ=\021}\205=<\342\220\275m_0<\320\303\001>\037\r\212=\347\236\352=$/h=\0257\022=U\314$\273axe>\231?\031=T\210\226=[\270)=\356u\235=\005\213-=8\357\207=\337\206\201=\000m\370\274-h\021=\373\001h=\344\306\363\274\354\276i\2751\361\210<\342X\371<\2407\236\272c`\010=\375\303\307<(\275\n=\220\256%\275\306\373\273\272\032\303\366\274\217\202\004\275lZ\251<#\370K\275\277\342\247>\211\250G\275\266s\302<\013\005\006=eX\367\273\356\332V\273\231\327\227\274:3\271<&I\037=\362(P\274=\331\301\274\216\\+=\362\005\303<^\2217<[K)=\253\004-<o\350\201=\203wH<\343F\242=\341\317\277<\277\314\030\274\r\t\376\2748\017.=I6\306\273!\274\210\274\314\235\261\276\347\226\263<\\\247\035=\202\237\272<lo\215<\370\332\334;\233\014D=7da=\002\237\277<%\t\262<\350\325\250=9\305\324<\361\374\016==\312\234\273\244\036\010\274\345\312\260\274S\301V\2742\243\026=l6$\274\274\215\217\275S\323\300\275\257\036E\275\367#\246<.q\261\274\301\366h\275\234\243\223\276Dg\007;1s\\\274\325\'\274\274\273\376\255\274\307k\337\273\244\t\207\275\205\257\200\275Bi\r=\214\207h\274\330\300h\2748\335\213<\017;\205<\351[\204\273\000\315\252\274 \334\351\274D\306\005\274>F$\275*L<\275\372\307\217\274`\321\256\275\345:`\275\357\222\013\274\377\233P\274\234\241Q\275\236\265\304\276\230Y\r\267\177\205\013\275\212\317\'\275*\227\243\274\322\376\220\273H\007\003;\203\204 \275z\256\026\275\016y.\275w?\n;C\224\'\275\246@\n\274#\243\335\274\371)\203=)Ry=\321\030\002<\rW\353;:\222*<`v\231=\013d\265=yO\005=\321\306\212<\215\261\224=\337\227\267=~T\225>\022l\221=9*\205=\361\'h;\"\244\221:|u?=\351G\330<M\354C=\273\242\227<\236s\225=\263b)=\020\336\265<\035A}\274\004\301y=C\225\352<\005\002a=\333TC<\377\031\204<)#\r=P7K\275o2\354\274\020\033\004\275\n~d\274\023U\240\273bt#\275O\351\270>c\331\267\275\310\365\262\273wGB=\2579$\275\373\202U\275\n\025\263\274\323\372\354\274\240\362\310<\335\030\331;`M\304;Q\2624=\256\365\343<E\215\025<\310>3=\354D\312<Nh\n=\316\275\026\2752VD=$\030\200:]\272\340\274\261u];\375\327\256=>\363\210=\305\323\224\274\354\272\252\276\345\0235=|\210\300=e\274\016=g\357\307<[Kb\275)\226J=\370\356.=\226\0271<\213I\023=\303\346N=7HE=\271\326\363<\020\035\315\274&\265C=|\202\226=\024\314\007=E\314\244\274R\036\007<4\010\211=\224V\255=\377\277\223=M\202\302<\354\277\036=#\2078=kY\230>\206\222\357\274w\235\r<\010K\247<\025x\223=\275\307\r\274Ta>=\303\220.=\217\341G\275I]\252<*\354\213<\371\001\242\274\257:l\275\252\235\034\275\267\230\010\276S\234\n\276\241g\310\275=wG\275\037\273\226\275\004\037u\274\023\026]=\347i\031<\210\241\242\275\376\243\330\275\206H\233=\253\033x\276\360\245\230=\205\345\275\275\206p\335\275Z7\006\275\\-\301=b\373b\274\2213$\276\367\300\023\275\356\202\026\2761o\007\276R\274\347\275\21783=\007\n{\274C\366\227=<\272Y=\021\357\267;\342\2672=\227\263\230=\013\033E=\342p\260\274\227\254\022\274\034h\307=\031\364\263<\352\313p<,E!\276\314\"\201\275fW\217=a\350\021=\343~\260=\214z\321<c\220\361\273\014\2269=D\305o=\231\320\232=\343\360\347<3\377}\273K\016\242=\301\374\251\273<\366L\274\004\006\330<\274\222\352;0\341\027=\256\2730\2737[\020=\223 \026=+\255r=\343%\035=\006\213\237\273K\360\203;|\244\313>r\325X=\326B\311<\361\332\367<\346\014\006\273\373\340.=\034|R=\\q\305<\240\017\272=\336\276p<\366\353\323\274p\242N<|\016\002=O\262\201\274G\350q\275\013n\341\274n\010\213\275]\026\264\275[Pv\2746\024\266\274\272\321W\275.\252@\275\255w\265<\304v\016\274\244,\225\274\334\242\366\276J\377\377\274g\224\014:\256\235(\275\034\t\313\274Z%\017\275\004\314\202\274.`\265\274\242\325R\274\306ja\273\034cR=\202c\320\274Da\010\274\330!\371\273\371\000r=\351k\033>iN,=$\352\215\274L6\202=T\005\010=\030\242z\276\355u\265=\361[\010=\351\264&>tS\211\276\211Nk\276\207H\205\276\372z(>\360\277^=\321\027\237=\230\032y\276?\265.=n!\202=!\350\225\274$\360\020=o\335\033>\346(a=a\262\330\273_\376\234\273^5\356\274\\#m\275\345\266\201<\212\346\236;\";.=\nA\322\274\373\220Z\275c`\016\275#\257\242=/\221\213=\365\022\246=\t&\273>V\326\022\276\360B];\225\017\216\275\361\257\353\275\366d\264\274\301T*\275\r\014\366<\333iE\275\222\"\236\275\277\364w<\3545\005\273\3210\246<\306G/=K\226\244<\336j\314\271\224\\(<\276j\004\275\310\013\307<\357\002!=\233W_=\342\207+=\027T\223\273\337\034\370<^\2357<\217\035\262>\016\235\007=A/g\273f\264<<\313r\314<b\221\000\273\335\305\367<U\211X;3{\026=\344\211\254<\025\272\355<=\272B;\3445\245\273\r\362\336;E\274\213\274\210y\234\275kX\241\274\025\354.<?\322\325\274\215\365Z\275\377\3225\276\342\265\302\275b\253\217; d\241\275H2\005\276N&\320\276\374I\357\275\325\327|\275\210R\005<\205F\355\275|\0321\275Wl\261\275E\272\226\275\033\tJ<\376xh<\374\305!\275Ja\274\274\352p\240\274wc\344<%\321\247\275(J(\276\360\013g\275\362\252\314=Q<I\275N\316\327\2755\253/\275\031\024\n\275fV\364\274;?\325\275\317\306\\\274\275td\276l\005+\274\232\354\302\275\344\216\247\274\327k\237\275;\222}=\212\236\314;c#\202\275e\253C=\357U:<\224\323-\275\2053\233=V\2040>|\325:\275\030U\023\275u\215\210<\375\202w\275(\253\264\275\377Y\306<\304\030\177\275-\371\357:\314\232\234\275\232\330Q\274u\360 =8a\260=\326\372\275>\203\343H=\240\021\340<(\035\036=\023\270}\275\311f\007=Y)L\275\363:\212<O\231\005\2751\252\346\274\251\373a\275t\343\222;\361w\360\274\036x\211<\027r\352<k\006\333<\360\206\037=M\236\024\274\003\355.\274H#\354<q\320A= H\327<\033D\027=\255Wq\273\317\267\201<\304k\272>\226\374@=\031zG<\020\264\203\2733v\277<\024zk=\324\235\265<.x\216;A\021\276;c$\376;\214\330\014=\344Jc<O\002\217<\261\204?<\r\020\232=\217\177\220=\227\021j=\221);=\310g\336;\333\026\205=\023;\311=\246\337\225<\270\272\033=Q\000\013=\343\221\241=\260\261\246>\342\221\367<\266-N=Mx\004=,*<<\305\322\037=\207\214;=\006\346$=\324\337\321<\343]\212<3\375+=\322h\031==\036\311\2743T\335;V4V\274Tl_\274\262\360\t\275NR\240\274\304\310\004\274\333r\226\275{n\032\275H@\036\275\341\020\270\274\326\215/;T)\202\275\022X\256\276E\026\333;\372m\035<0s\016\275\260\361#\275\330$\214\274\306G\347\274\257\342\276\274\352\r\240\274\265\377\353\271\2057)\275\367\310C\275\2201h\274J&\251;\3518\301<#X\323=\344\206\363\272\252\360\016\274\307\235\237\274\207\001\010\275\0316\233\275\272\334)\275U\203\307\274\341#^\275\256u\211\275\034\322\277>\200W\246:\3010t\275D\357W\275#\226Y\2752\217N=c\n\030\276\372BK\275Yj\220\274\224+\370<\'k\031>N\362\351\273\tz3\274\307\202\247\275Y\036|\275\tV\216\275b\037\021\275\251\314\035\275\307\363\211\275\313\360\240<\334\201\273<\356\014\255=\336\374\230\274\313\005\367;\327\332\007=*\212\270\276\375`\326=\313d~\272J\254\201\275\222\002t=\235\332<=d:?=h\253\272\274\006\030\314\274\3431\342;A\207Y\275M\243\244\273\033\t\213\273\'\362>\272\366\002\246<K;8=y1\225<\274\241#\275q\241\226=G}\302=v\321r=M\363M=1\3224=mK\251;\'\225O=\354\023\236\276\r|\374=$\274\216=\036\000\007=\013\226^=\371\351\252=\030\350\020=\242C.=\341f\232\273\023;Y;\264\324\262=\314\216\256<\272\306\231\274\024a)=\201u\371=\242+\263=\353\0348=P\275\361=\3779\227=\321\237\265\275\320\010!\275\230\202\307\275NQ\224=\264\305\022=\037\213q\274\r\365J\276\033\261(\2753\235\022<\031\372\203=\021\273\235\275\365\007?\275\372\300\372\275\321\024\353<\330\227\036=\333\374\372=\327\003F;\356\232S=\213F\032=\374;\344<G\215\331\275X\032\370\275\327\033\323\275\306{\024=\"\265\312\275\311\221\352\275\273fp\275Z\200\023\275\'\371\261\2752`\312\275\253\356\211\275\034\242\252>\3657u;\203!\313\275\344\246]\275Dp\371\274K\241\025=\3052\217\275\322\260\244\275\346\'Q=\234\267\227\275~\240\343\275\300\240\250:\236\365\266=\364\t\331\274\346iA<oaq<\323[g<\336\234\n=\213\230\312\273\207$H;X\340.<1\006\202<\000\221\242<T0\260<\264\226\360:i9\306>\243M\202<\243\311O\274\370\222\372;}#\325<f\314\332<\301\2522=\352K\357<\353\027\262\274\214\342\206<\242\223c<\211Z\001\275nD\375<\313\023y\274\311KJ=t\272\357<}\3212=\301@\334\272%\nV<D\016`=\237\221/=\231\237\325<w\257\311<\254o\227\274,\021\340\2738\231\256>\231\253\270;D\233\030\275\200.\345;P3\021=\3215\263\274\035y8=e`\006=\252e#\273\325\214+=T\311\333<\326\010v=X\243g<\001\231\210<\253\211\253\275\323\317\267\274\214l\225\275\352\215\360;\346y:\275\n\013\315;\351\275\343<{\276\001\275\262\235a\275\310>\206\2745\'(=\301F\216\276\020V\360=S\020\315\274\377\277;\2756$\203\274\336\364\312=g\353B=\340\346\256\275\1775Q<\273\335\'\275v\261\340\274\024\327\006\275\245,D=\272\232\232\275\035\\\013=K\371\264=\"eF:\264O\024\275\237\362\304\274^\231\253\275\034]R=\177yE\275<{\211<\354\315\355<\025\227c=\203\317\233>\030\360A=O\216\311=\256\354\034\275\217\1771\275\271\353\301=\350}\017\273\277H\225=Q\363-\274HD\231<j\024\006>1\313J=Z\314\212\274\017\225\330\273\310h\230\274\203\355\226\275 \262\214\274\253\006\036\274\353f\003=\351\233\t\275\004\354\242\275\270\230\235\275|\346\225;\327\013|=\276q\241\275\255\344\313>\324&\335<\013\205\364=\014\277\260<E\303\216\274\275\024\004\275\327?\226\275\340\020\247\274*u\213<\362\030X\274X\010<\274\365:s\2754RC\275\n\177\216\274\217\341\321\274\t\203N\275Y\365\\\275?\262\245\274\013\247\310\274\021\021\003\275\247\024k=.\336\022\275-\024\344\274\036t\237\275\224\205\352<Xa\224>\315\331\024=\222\325j\275\202\200\251\275W5\214\2745\000\030=b\375\300\274\252\034r\275WM^\275\'\363\'\275\236\267\032\275\300P\374\274d\274\303<r\307d=H\331\332=\253X\264=\223\t\214=\033\240y\274\215\031\274=`:x<\rL\352\274\371\241\301\274\370O+=\305\223\334=\253\372#\275\210\267\235>\302p\251\275W\375\250=k\210\377=\253>\235<\023N\314\275\207P\220\274\333&i=\212\200\203=\271\276\347=\307\317\311=vq!=\267\001\300\274lKF\275\215\037;=\320w\277=\314c-=~\013\334\275\034\2412=Xy\177=\335Q\332\273\321\3373=\357\324\320<\204\016\301=\022uz\274h\261\201>\323\374\212\274\306\211\313=\255\365e=\236M\301=\204p\223\274m\277x=OZ\363=\220C\024\2757d\370=k\321\033>dO\300=\211\260.\275\301\000\216\273\377\265\003\275f\345\200\274q:\010\275\220\025\233<\224\274\241\274\200\021\021\275\353U\265\275NF\035\275=\323C\275\262\036\204\274\315\261\255\275*\022\310\276O\2165;\'\261\311\274\204\364\274\273\335\3300\275o\253\272\274\306\260\245\274\002\205\363\274\325\023\237<\236\274\306:jt\031\274U$-\275\336\n\367\274J\301N=O\272\222<j\217\314<c\356H\275\235r\263\275\320\227`:>W#\275\267\334K\275\200?w\274\272\013q\275\366\013\005<\262\221\235\275\003I\273>y\005\323\274\024\360u\273ql?\273\345dK<\216\203\351\275&Uq<\350\331\222=\024\201\274\274\2201\313\274\256\374=\275[}\022<WP\207<\216\227?=\242<\274=\016{*=<\337N=\370\033\004=\343$\352<\333\347\361<$\232u<gr0=\257\3324=\036\357\214=\277\327!=:\337\231>\320\316\031=\247\354\333;\234\374,=\200\224K<AD\222\274\367\247\245<\277E\022=\t~\277<\370\350\025=\n*\222\273\035\345\t=o\362f\274\373\233E<\377I:\274\r&\364\274Z\001\317<3\027\205\274qFs\272\014\236\235<`\204\t\274\277\007&=\252\347\310<\353\031\377\272\314\275E;\222_\303>\263\322\000\274\3461\336\273XQ\2259\347\031b<C\022\270<`\361\205<o E\273\207\344F\274\361\201\355</8\230;\263\036\230<\003\236\306\2743\276\351;+\r->%\252\023>\372B\r>\372(\337\275@\224\000>\247\213\346=\305\355\021\275\014\261\233=\320\017\340=\372\316\034>9\371\030\275\360\002Q>e7\222\275\231\340\000>\203\203\221=\231\251\320=\\\363\237\275\274a)=\217\210\363=\004U<\275\373\240\353=\"\371*>\377\305\021=\345\350\352\275\2430\343\274\001a:\274:1\001\274\331\261\377;\007&\n;\264\234\365\274\254K\255<\371\220\006=\033k\377<\257\000\234\274f\354\321\274>\001\020\273\255E\310>A\304\325\274pBi<\024\374\272\272F\246\213=\225\024E\274\363\005\267<\335\373\265<\213\373\366;\267\227\336<w\311\031\273\021?h\274i}\264\274\305\'\000\275\355\215u\275N8\314\275Y\215.\275\334\316\375<:i\367\274\213\214\226\274\206C\245;g\326\001==(-<H\300\213\275\271\206\303=pB\205\276><}=-c\033\275\327F\301\275\216\205J\275NH\226=\354zx\273[\255\202\275.\351=<\260\331b\275\317L\321\275\340\266\305\275\317\315:=8+\222=Dr\200=\213\342U=5\212\266=(\276\026=t\277d=\321|\375\274\336{\'<:\024\242;,\204\270=\027\374m=@q\243\274\3324\265\276\006`-\275\340\2776=\212`\215=#Y\'<\235^\273\274/\353A\273\250*\213=\000`\327\273\327\2272=\\\0324<\320\340\'=H]\343;\223`3\274\350w[=\351\370\031=Y{C=\205\244\004\270\311\367\217\272\006h\023=\244\231^=\302\003\270;\010\253\022=\376\353\376<\r=2=1C\241>\315\"\222<q\023\343;\250\320\351<\332\303(;\245m\225<\035\273\3738\372\001\313<\232\254\200\271\261D\256\274\247v\001<i\213\262<FT\r\275\344T\367\273UQ\206\275\247P\031\275\252\211Q\275\3436\210\274n+\010\275\334.=;;\317\321<\232[\313<\360\310\342\274M&>\275\370\301?=\311\037\251\276.\314\257=\375\032\355\274\271\350\211\275\237\240\362\274lM\325<\201U\312\272\"\234\020\275d\274x\275\001\251\332\274\314\031\213\275I\031\324\274\341h\025\274"
      }
    }
  }
}
node {
  name: "Const_9"
  op: "Const"
  attr {
    key: "dtype"
    value {
      type: DT_FLOAT
    }
  }
  attr {
    key: "value"
    value {
      tensor {
        dtype: DT_FLOAT
        tensor_shape {
          dim {
            size: 1
          }
        }
        float_val: -0.006618314888328314
      }
    }
  }
}
node {
  name: "Const_10"
  op: "Const"
  attr {
    key: "dtype"
    value {
      type: DT_FLOAT
    }
  }
  attr {
    key: "value"
    value {
      tensor {
        dtype: DT_FLOAT
        tensor_shape {
          dim {
            size: 56
          }
          dim {
            size: 1
          }
          dim {
            size: 9
          }
          dim {
            size: 9
          }
        }
        tensor_content: "-\215\243;uV\231\274ySK<\"c\200<\030\301\201\274\251\"f<FX0:\324AQ<e\037~=g\255\263:\264\013\034\273%\310\027\274\227\240\341<i\236\030\274\2717\007=u\231\275<s}\034\275qeo;\253,6\274.P\310\274\325 \370;|\000\363\273\3530\353\273&\021\364<5\257\200<\034\267{<*\367\367<\362\221\335\274\301\031\016=\256~\276<\035\033\207\274\321\270\313<P)\345<\326\261\310\273\267n\331\271Z\253L\274#tW<i- \275YE\265\274\013M\273\274\222\022\255\273\256h\020\275\321#d\275\212\026M:\355\374E\275\214f;\273\360\363\013\275\245\227 =nw\222\274\252r\227\274M`;<\214\2315\275\332\250G\275\330\276\003;\322>\240<@\212W<O\267L=\336\227*\2750\253[\275\317ug\274\326\263\030\274P\315O\274\351\327\211;p\227\030\275\325\214\355<\361 e<\356\330\216\2738*\212\275B\270\203;\034\323J\274\261W7\275\310}W;Y\024v<3k \273\001\001\031:\255\014\347<;\030\255\274\222\255?\272r\264\210\274\002F\375;\250:\324\272\216N\266\274\2601\221\274\nA\341\274,\023\366\274\216eQ<#\253\024=\311\271 \274\0304\034<\351.\330\274\353\005\333\273\362\200w\274[\271\202\274\311\212\270\274|\351\255;+v\315;\226I\302\274\026A\344\273\371\271}\274?\335\023\274O\323\211\274w\355\336<\265\262\004<\201\033\n=\005\204\263<\371x,\2752#>\270\355we\274f\032\224\274u\243\030\275\363\277D\274\370\027\351\274\230\204\342< \340X:\230+\026\274\310\203\367\274cxt\273\320\374\333\274&\262\227\274\027\273\321<\370\241Z=\211:\237;5\215\360<dc\2728\211\177}<\350\023\n\275\023*\243;Z\'\236\274\366\313\005\273X\3154<>\375\333<g\201\t=\341z\023=|T\303\271f\030\t\275\037Q\366\273\367B\032<\354\020-\274\035\231\244\274\362ln<\027\217\202<6\006);d\303J\273f%\220\274\212$^8r\273\245;\273\026\004\274|\360\215;\210\360\365\274?B%\274$.\274\273\030\314\363\274\010\317\204\274\235\264^\2745\337:\274\007G\301\274\033\030\243;\324\376\227\274\006\364\022\275\256\334\365\274\2305\360\274\216\276\021\274\276\236\207;-hZ<A@\354\274:\216\233\273\373\010\273\272#\305\241\272\320\341%;\024\324v\271$\246`:~\360\031<>\301\014;$D\210;\022Q\007\275x\200\200\274\275{_<\271\247\346<q\277f=G_\257<&\305\206<J\203\217\271\317\031Z\274\177\251\272\274Cl\377;\372N\376;\211?V;\254\214\014=\347\033D<Z\322\023\274\331rr\274\\H\031\275\243\035\016\275w\023\005\275\3447j\274\301\256\035;)\241\323;\203\330,\274\034;\032;\002\200\313\273\360\265\026<O\251\216\274x~\203<Q\026\216<\037\300\007=A\2334<\234\222\237<\362PE<\235\322y\2743\365t<c|\213<\261\274\316<\025V\003\273\345\276\024=\316V\034=\277\373a\273_\367+<>Q\340<\037\365\3179\366\023\251\274\252\344\227<!\275]\275\307(\312<.\002i=X\r\361<\020\270\364<C\356<=\376\026\002=\325\230><\026\312w<\250\205\024=\216\034\322<\007\026\201=(\037D=\300\014\0059\252&\002\2745\315\020<q\025\346;?\214K<\312\004\264\27364,=\274\237H=\316\277\001=o\254\013<~\014\037<\026\233\351;\253\265\262\2740\023e\274>M\005=\034\370\225\274\311\336\356:\217\006K\273\223\273\276;\241\371\270\274\232*\022<\003\256D\275f?\204\273\376\246\017<\003\323\362;\325-\031;\225\024\253;,\363\324<\276\336\"\272\314\nR\274\374L\335\274\373\241\266\274\217\254\302<\022\"@<\212\305\233\274{$\234\274H\213\331\274\336\342\215:^\242:\274w\r\205\275QV\033\274=\242\022<\027\022\222<\350\033\033<\217 L\274{$m\274\317Z\177\274\032a\357\274\355]~\275\317\236\247<\211\023\363<J9\323<\276\271\247\274\354\033*\274\246@\376\272\002\257\211<\244\326\302\274`n\363\274\312E\222<)\005\354<\201\234#=\3400M<\212\345\217;\010\276\357<\202l\211<\020\204\262\274\217\256\014\275\314\252d\273\343\t\'=I]\007=\207\222\266<\261\006(<J\315\014=CD`<\342\345\010\275[\317\030\275%\371\212:_\257\246=\232E[=Ku0=o_\261<\367\n\314:\343\211u;\325E`\273\340@\036\275\305\322;<\"\253g<\224\351\274<\021C\303<r\025\206\273\327p\014\274\206q\200;e\211\300<\264\363\274<\321E\226<i\372\317:myO\274\251\225[\274\3306\306;\023\266\214;\267;\024<Y\361D=\210\306\226=qR\222=e\016&=\234\261\022;\023\312\275\274\271\254\211\273H\257\001\274yo\307;{$1=i\320\213=\202\333\253=\256\232e=\327q~<\030\3106\274\020\311\227\274\260E!\274\204\200\212\274\205>\376\273|=\007;-\377i<\205\367\264<?\031\177\274\r\300s\274%-\236\274\362Kn\274\227\243G\275\230\277\225\275\215o\300\275\353\344\212\275\267\",\275\2158\371\274\034)\241\273\215\216\370\273\267\\\251\274x!<\275\327c\262\275\377\032\356\275\267\307\305\275\341Io\2751c\305\274\3448\016:u\307C;\021\253\256\274\026\235\330\274\000S:\275\361 \205\275\245\020\254\274\261|\032\274\242\346.<\224\240\376<\033\242V<\217\204\332\273\215\276\014\274Z\037y<\\]3<}V\357<El =\024\035\000=\251\3463=\244R\273<_s\245;\227\302\373;\026\366\323<_\010\023=g\233\377<i\313\024=)E\263<\352\322\275<Xc\261;\037\'\304\274k\006\202\274\316ok<\325\314\366;\357h\247<ko\216;\021\264\013=\2429\260<\242\263\200<\205G\244<&f\213<\266,\025==\2679=\370\324\217<(\245\265\274\021\274\300\274\250\260F<2\204\214;\355\272\341<\372\220!<\253\2353;\314\212\t=\370\002\205<\312~V\274\327\034\014=\311r\202<\003\035\t\274\032c\302\274\216\024+\274\342\3142=\216Q\222\273\377\0334\272\261\200\035\275L\374\306\274\305l\242\274\263\251\326<\220\037\003= .\204<\347\177)<?\r2=\3134\006\274z\021\362<\360\274\242\273\345RR<\205\006}\274\357T\220<\320yq<1{\325<\231f\236=/v\034=\010*\200=7\rf=]\375\220<\216\r#=\250\033d<\3136\250<\206\3156<\205\034\224;\254\304\336<S\030\245<f7\237<r\330\000=\227\205\005=\315\024\315\274\244cm;Xd\t=\323\343,=\222\354\332:\345\310\206<\306]\200\273\\\\\214;=,\243<\337\261C\273\377\274\263<O(\t\2749da\273\377\320\000=\207\007i=\024Nv<m\301?<%L\217\274\256\231&<\227\212=\274\224=\021\274-ti\274\374p\361\273A\300o<\375\301W\274\372\te\274\023JK<D\362\202\274\253[!\275\275!\323\274i\371\330\272\356\330\265<\241%i;\344\273\371\272\344\021\374\273/x3\274u\354\251\274\210A8\275m\025\251\273\025\002\t=<\177\214<G1\214;#\275\321\274\274\001\340\274F\374#\272\245\314\254:\231\331\016\274x\033\301\274\230Z\002=\025(/=\023C\035=\253,\245<\021\213\026\274Gs]\273\261\235\232\274r\214\222\273\352m\271\274+\020\227<\220\366#=\277\004 =\242\365\225<\263P\364;\313X\201<\343!*;u\246*<\2375\004\274\221\214\354\271\356\315b<\013%\250=\231[L=3c\206;\205(\247<\357+\263;\325~\201<\342d\263\274\206Ys;\025\021\233\272\234j\333<\t\313\374<\242\213\276\273\263\353\260\274\032\352r<\213K%\274`\360\305\274\232P\351\273F[\277\273m[\340;\2449\236<\321\215\206\274\237\352\254\274i\343\315\274/\342\005\274\005\r\305\273\305\363\236:\267\034\256;\325)\232\274\351!\356;\344\323\322\274-\263\\\274`\342\227\274\276x\177\273l\333\215\272\273c\235\273\207\220\352\273Z\227\273\272\016KP\274,c\\\274\306n\024<\267&U\274\026\206\352\274\327nF\274K!\306\274K\211\224\274\312\214\004\274\265\207\006\275\3337\301\274\004r\223\271q\235\204:\231\037\213\273\304\345n\274\002\230C\275=\020\215\274u\232\005\275#\177\032\275$\2660\275\223W\307\2744\275C8Y\241\267\274\247@\331\274\201\220\031\275\230\023\034\275[\037\024\275\317-\006\275\270\344\307\274\333t+\274\346\267\006;\272\002\220\274\304}\016\275\343\013\236\275j\\\220\275\265\364K\275v\267-\275\000%\253\274l\256\252\274\227\354\274;\200\325N<\333\303\020\273\364\246I\275\033b\242\275\304\270L\275sw\342\2747\2170\275\035Z\213\274\326\350J\274n\210\273\274\225\207?\275\017\356\200\275\001T_\275\'\307 \275S[\244\274l\224}\274xt\204\274\016)\355;8\024\340\274\007\352k\274mz\203\275\316\177U\275\252\236\256\274\374b\t\275P\244\257\274\333\366\366\273\306\204\303;\003\362\260\274\326\343\327\274\014\352\203\274\321\235\345\274\221\206s\274\374\032\226\274\246\242\'\275f\377\204\274\2479\r=\314\214?<\307\327\260\274p\342\354<\311\200\341\272\320\226E\275\267\244\007\275\n\2314\274\317\200\261\273\236(\202\274t\365\247\274\024\251Q\274L\217Z;\332\346\032\271\312\230\276\274\350\375E<\223kk;kC\2028\331\230\274;r\344\n<\250\360\372<\304\367\300<\201g<<\274X\270\270\007\213\355\274\036N$\274\001s\207\272\247n2=\0055\016\275o\310U=\372\301\246\272\267\313J\273\277\276\272\273b\320\211\274p\226q<8\350\233\274\376o\"<\323R\004=\233\222\240\274\031wU\274\370\035\\\275\204E\227\274\240OS\275\254\030A\275\013\t\033\274-\"\304;\327\360\001=9d\270<\335\273\031\274b@\024\275\250\253r\275\0258\026\275yp5\275\216\2303\2749\344\027<`$\337\272\316\n\020\273\252\n&\274+\312\207\272\272+\032\275\346^>\275w\311)<\024IW<\356\250\274\274\005P\031=\224\212\226\270\276\271,\2756\256\375\274\302`<\275/Fp\275N\363\265\274{\017O\273|\320\202\275\240\234\244<\0002\205<\315\027V\275%\000\0009\362\022\223<Y\363\244<\256\213\221\274\322\010\035=\230\273h\274\240\032z;\026\023?<u\317\310\273{}s\274\323R\320\273#?\276\274\037<\215\274q\244 <\n0\021\274\243\307B\274\204\217\216<I\027\272<m\231\260\273\205\305P\274Nt\253\274U\333\231\272\277\246><\312\347\260;P\355\273<8K\201=\376\337,=\346L\203<%\362\260\274\030\206\271;\262Uv<]\2527;-\313\346;\377\352\241<`i3<\327\021\203=\333[\274<\252{A\274\022\035\021<*\377\240<\022\274\342\274\356\212\'<\371\022\343<u3\032=V\364\356<\375y\277<\270\215\342;N6t<+\276\362<\237\336$=\377\037%\274\316 ^\274\331\010\333;\206\020;\275\037\364\025=\346\350=\274\226\3663<N\232\207\273F\010\256\274^\277\324\272\351\276\243\274\227\340\003\275\250>\262<F\203\031=\230\302\331:\016\000\005=\031u9;D63\275\266\n$\274~\203\254\273i5(<\221\226\032<\022\205\336<\006!\033=\313\262\210<MA\030<\013\222\270<\203[\177\274\362\n\345\274\323\330\017\27513\010\275\022:#\274\332\017\233\274\316\036u\274\221S\237\274\344r\035\275\373F\277\273\037-b<\362\177\345<\210\266\013<3\322\342\274N\373{\275\003kT\275\323c\326\274\262qy\273\276$\304;\225\375.=*\265\251=\261\214\235=\247\371\002<Z\350w\275\255\344\232\2757vZ\275\262\225\256\274EL{<+\261\221=lp\027>\005\010&>\263\352\265=x\376\251\274S\340\210\275#\326\227\275\\<*\275SKY\273R\237\200=!\374\036><zM>/\275 >/15=\307\311\363\274<)\200\275\245\307X\275:$\377\274,\263\214;\225 \255=\016\360\036>\315f=>\247\241\354=\310u\342<\0210\t\275{\206\034\275\322\325\205\275=1\205\275S\252\330\274F\n\007=\243u\313=7\265\275=C\327*=\324\217\034\274\'#\326\274\000\ns\275\260I\260\275\213;\257\275\3473m\275\026\311@\273\232\t\326<\361\323:<\030\301p\274r\010\270\274+5\000\275\177\374i\275}\330\231\275J-\246\275\201gT\275\223I\236\274\350\003\204\274\220:\232\274]p\271\274\220\3534\273f^\236\274r?\023\275\236,W\275\003/S\275\365/\005\275\277\232\267\274$\324\203\274\270\2522\274\242eF<\\\251\230;\357\310\221;\\\020\323\273\335\227G\275\000z\241\274\350\275\304\273\030\321\306\274\036\362_\274\345Y}\274\270\004\335:\302\370m\274\'@\217\274\346D\215\274\301\014\033\2750\217)\274l;\344\274W\030\026\275\375f\016;k\231-\274x\350\234\274\222\262\323:\006\314\233\273\240?\305\271K1\016\274n\371\350\274\370@\026\275]6\307\273{\342\370\274\337;C;\266\035\246;D\321\365;8D\001=\316\341\034\274E\335\214\274\222Z]\275cE\264\274\230a[\274[\017\010\274\324{\372<H\224\301<*\327\362;yV\335;`P\027\275\317.l\274(\342\241\274\260\206\314\273bu\203<\252,\212=\376[\210<\261\305\327<t\016]\274X\264f\275\220T@\275\206Pn\272\231n\016\275,+\212\274\247\001\177<\245K\022\274&U\371\274=\330\370\274\327\241\214\275\013\316\216\275\304C\253\274\242\203\033\275B\026*\275{\335\370\274\273\'\351\274]\376\220\275X\020\241\275\236q\237\275\200\3403\275UU\221;\3135\351\274\2117\277\274yu\361\274!<\006\275%\3018\275\265\022\210\275\023\252T\275\305\240\022<\350\263\315\273\3523\232<b\326\242<7m\356\272\214\202\320\273cw\024\274V\351\370\274r\272\245\274\274\364D\274\271R\t<\233\300\370\271m_\215\273\370\034\224\271dF0:\\\364\\\273\222\237t\273qD@\274\336=\231;\007\263\007<c\215\231;J\242.=\000\371\222=NX\312<\231\007\310<|\246\007<8!\025\274O\261\214<q*\346\273\355\373\261<\3248\007=\351\212\200=H\275\210=#\231\034=\177s&=G\236\321<)g\\<c\226Y\2740\273\313:^`\216<\023\306\247=\220l\033=R\327\026=\004\022\244;\202?\243\274\322\345\274\274?3\256\273\265I\220<\341\010U<\377\222h=\343\365\026=\376\034:\274\232\231\212\274\344\2273\275\374\271\034\271\321\n\241\273\272\t8<\322\257\263;\221\320\";-\237\231\273\020\364[\274\367\271\021\275\016\335U\275\035*A\274\2621\246\273\264\013\250;sA\2639E\352\220\2731c^\275\257J\316\274\213\211\346\274\360\034^\275\301\017\267\274\\\267\033<\3018\023<\306\344\300<Jv[\273A\236I<]\312\313\274Wl\003\273g[\267\273_\340\276\274T\303&\275<\215\212\274\276\0064<\372\347\204\274\3375\214;Xs\312<b;s\274\031C\027=/\035(\274\026$\031<\030\310i<\326\205\245;:\031\372\273\241\372;\274#s\317\274K\256\237\274\255\332\005<\016k\300;\204f$;I\322\247<\2244y<W\362\235<I?\332\274\3258\024\275\310D\211<Vu\000\274\034p\214\273\'\361\032\275K\332R;\353\200\027\272\017)\364;Q\241m\2744j%\275\224\325\322<\223Y\035; \231\334\274\260jh<\273z\272\274\305\024N\274\201\0050\274\307@\344\274\352\323(\275#7\221\2745#/\275\027-C\275\010\032A<Q\365\354\274,\237\267\274\031\331\"\271{\246\202\275+\006\366\274\264\201Q\274\240+m\275\023\312\260\274\225\231\204<T\205A;\267\372\023\275)\264O<)T\230\274I\373\222\275\344\333\\\275\203\224\334\274\r\370\371\274\252\256t<,\357s;\336\227\322<E\355\027\274\261\\\035\274\321\222\275\274\371}\222\275\341\016\372\274\365\343I<\340m\021:\026\201V<1\313,<\220W\215\273\300\251c<8SY:3$\337\274\312~L\274\\\304\r;mZ\367;\'\017\350:\002-\003\2731P\315\274Y\235\324<\216D <).\201=%Db=\376\266w;\025e\214;\326n\211;\366\251\035:\201\315\355\274\342D[=\210y(\274\t\376\020=\315\335\n=\377\256I\274?^E9\250\021\034\273~\242\023\2759\352\221\275u\300\225<\205\357\206\274\354a\002\274\226\262n=\335V\250<\235|}9\331\000s\274\253G\225\275w\354\362\275f(\247\274#\312\320\274\032\203\240\274j\266\212\272It\312\274\022^+=\357\0253=\215\016\232<\'\273\212\275\210C\377\274+t\222\274M]_\274\373p\020<\206S\016\273a \346<$\327\240\274%\361\201\2758\220\354\275AA\342\274\376\230\256\272\222\321+\275s)?\272I\253+\275\222\360\265<\226i\276<*\257\271\271\305G\027\275\243\352\215\274E&\260;\370\247\317\274\211\211\245\274\257(s\275\327\346\031=\007$\261=\255\250:=V\245+;j\331?=a+\371<M\223M=\371\3170=\'\255\271<D\203\361<\3653\021<A^3\274\307\224\027\275\322\321v\272.5\215\274?6\025\275,\275\266\274\223\343\316\273\303\226\263\274u\010\233\274\216J\316\274\367\373\362\273/S\207\274\377\360\252\274-\266t\274R\210\210\274=\300\262\274\032\003e\274\304\330\"\2741uu\274R\310L\274v>\032\273\276zB;\345Lt\274\221\262!\275\326z\206\274,\024\010\275\312\013\343;\377\312\303\273d5\277\274\263=<=\245N\013=\000\232\256;\341w\364\274\031\275C\274\357R\001\275|\371\212\274~Z<;\306\032y<\r\003;=\213\253\'=A \264:\014p\233\274\363\255\026<XR(;\014\362\004\274\250\311\210<7\207\265<]B\234<\271\240\344<y\236\371<\205\337\022\274\354\3373\273\302_\3079H\200-\275\350\346W\274\202\001S<\230\036R<\347\333\211<e~|<\326j\261<O\013j<\366\024 ;I+\362\274\014\302\234\273M\214{\274\r\274\020=\200\202\010=.)\313<<\235$=\316\221\314<\267\022O\2724\304\371: 9\267\271\005C3\274\024d\272\273\230\246+<\036M\272<\033w\307<\354\272\227<\321\367\204<\337\355\2719\240\2033<\337&\271:6\007<<\362@X=\204\351\367;\025\007\311<\305\375\225<\264O\202<\0327M\274\373\361Y\274iTQ<D\375G;\022\214\017\275\021\007\300;\016\374\2649\211\327d\274\373\244\000\275$\264M;\036\265\330<s\301\n<\304\n\306\274k\235\'\275A\351M\274\001\272\357<6{i\271\274\243\014\274WJ\354<\273\330\216<I;k\274\016\035\220:\304\023\326\274\016\262\035<\251Rl=9\331V<\227\024\215\274\r7\231<|Dm=\330y<<\233e\300<\264N:\275.\\z9f\2465\274\006G\372<\316|\200<\376\261\260\273\310\226\361<\306\373\303;\353Z\205;\236\372\217\272\006W$<\243N\'\27391T\274&\313e\274\001\331u\274d\205\223:\006p!\2758\313L\274\226\224s<\032j\221;a\004\306<TKA\2754\252^\273\357\035\201:\177\225\236<\265E\006;\023\276\251\272\375\244\200<\260\375\235;\322\362C;kd\215\274\366\037$<\274o\313<\"\344\017;\001~\256\274\025\316\026=\265#\024=\226Y\224<vW<=1\216<\275\271\322\n\274{M\3209$\316@;\360L\213<\301\227\210\2744E\255<\'\350d\274\035\007\353\273V\203z\274\326,^\274Ty\255\274s\205\367\273G\351\212<\223\273\315\273\245i\331\272\215i\246\274\371\246\277;\262\235\265<\206\267\340\274\312A0<u\326\335<\304\036\200<\311N\017\274\352Yr\274\356>\010\275\342\022\336\2747H\372\273\022\253\313;\004\360\222\272\305\223\026<7B\247\274C\347\206<m\255\314<\302\017\016\275lM\257\274w\330L:\214H\261<\342<\"=\332\230\007=\006\251W=:|-=\340o\027;\037m\256\273\260\256\272\274\242\327\240<\324\224\312\273\245\303\214\272?\2272=\177\036\224<C\247\307;\226\201!\274\361=\331< \347:\275\272\363.\275j8=\274\347.\327\274l\336\037;\220\214\344\274\234\301\317\273\025\371\246\274\337w\345\274>\342:\275fO\225<O\344\247\273d\274\253\274\221\224\263\274?I\274;\207\335\277\274\205\0209\275\202u\313\274D$\377\274\\|\206\274_H@\274\307\225\334\272\342\306\001\275\366E\367;\3266\005\274\223\263f\275\275\356\316\274j\227v\275k\030\350\274\244`\201<\242M`<\214g\266\274\2012\033<w\014\023\275r,\275\274\360\303\370\274~\333\227\274b\347\006<\240\224\310;\265\353\331\271\337V\363<a4\340\270\024\216\366;\023\214\337\274\021\220\345<\322\000\252\274\232\'\266\274^\203\300\274\234\353\352:\032\265\276\274\244\222\225\274\010\263\274\274\264\360>=\221\223\203\273\240S\341\273\350\331\223\274%I\202\274\323\324v<\317\271#\273\344d\235;\245(\204\274\010\362J\274\210.D<\222\265y\274\233\312\r\275\267\377\265\273\271\361E\275\252\3173\275\031\010\214\274\244V\255\274\230\300U<\221\027t\274\274zc<\226\027\307\273\363\270\325;\361\300\344<]\014\234\274\223\335\032<\256\227\001=\346s\274=\263U\263:{\346\301<\325n\272\273\311\325@;\320\233&\274\023\370\313\2732\215\263;(L\t=\245L1=\030&\031<>\2315\274\275\270\256\273\226P\022\275y\264b;\344\362\373\274)g/=\377\210\215<\005\2707=\364N\223=r\356\365:(@\304\274\334\025\007\271\002Z;\274\305\275%=\211\204\367<\327$\300<.\346S=>T\333<\271l\213<J?Q\274\203\001Q\274\252\271\374\272\3415V\274\016\030\001;\365\227\252<\271s\010<\255\241\202:\177\000\252<g\227\310\271\347\340\221<c@\017<\244\260\260\274\244\2401;~\023\261<D\271\366<\2126j<\362.\246\274H\026\276;P\3334\275\013\201C\274\323\007P\274\371\204D\273T\211\346<r\311\274<lM\2559h\275\273<\377\021\013<\036o\305<*\261\246<\360\273*\274\303\257\'\275\366E\r=\"\331\022\273\376\005z<\243{\014\275\317\177\211;\332\002S\274\374\322\t=\307\'*<\367\301 <\251<\257\273\205\234\2678[\311\323\273\031\026\273\274\247\213+\274Y|\214;=\\\347\274\330\2755=\007\327\306\271\241~\027=\276kk<\332I\024\2746\322\226<\252\256\r<4\010\016<\2723\333\273\326~\326<\366EN=;\220}=\250\217c=\202N\021=\004U\227\274g\027\322\274m\374d\274I\341\352\274\033\304\256<\362Y\022=\255\213G=\250\310\211=y\210\'<R)\017\275\234n\177\274Ra\351\272\306\372\026\274%\316X<So\013;|_x=\244K?=\315E\236\274J\215\202\274\n\250\007<\245\023(<\277F\265\274\316\252\005\274\021l\267<\2658\320\273\372\r\276\273\010\266+\274\302P\345\273`D\226\274\355`E\275\023-\301<\225\216a<\216\217\237\274\205\251\215\273\214l\220<\033U\021=\241\347\323<\246\247\200<\n\313K;\377\317\035;(\n\251\274\216\336Z\2747\316\375\273a\032\247;\351\371\311\274\355QH\274\026*-<\303\027\005\274\270>\266\274\373\227\230:\020\224\311<N\326\375\273s\317\n\275lX\027\274\327\032)\274\260\'\000=l-\305<\007\266\037=BGG<|\210\036=\206\205\326\274\235]\221<\253\361+\275\265r\201\274\356/E=T?L<\032\"\035\274n\226\035\274V\036\233<\371\321\024<\t_\204<\307z\252\272\314\336%\274K7b<\263s^\274R\265\312<\234\324\214;\033\257\037=\210r\205=\313\334\210=\006|\000=\026;\353<\362\363\211<\202\177\205<\213\325\236;\n\207\254\274z$>=\262\366)=\263)\362=\327\302]=\321\356\354<` \216<\2773w<\247\366\355;4v\364;[\360N<9\264\363<\023\224A=\251\213V=R\322>=C#&=\331aa<\201\036}<\346l\273\273\343\363\210<\n.\275\272\2774u\274\340f_<\234i\020=\215^B\272:\372\244\274\317\355B<\rkN=\001\257b=\013\203,=\371kq<\325y\221;\330\271\375;T\220\211;\302\277B<\240\232s=\007\251\321= \007\222=\260\341\000=Av\214\274\304\367\236\274\030 6\273\345\362\356;\225\341(=\2113\314=}\332\007>\302\226\210=<\365\010\275\355\260\260\275\237\226w\275V\330\220\274k1\346;\254-Q=\367\207\311=\271;\317=\226\335\274\274\314\225\034\276X\2541\276\254\327\340\275\310\244\037\275\023v\261\270F\252\n=*\244\220=\372\332\363<p\r\333\275\3472a\276\363\177K\276\257\270\320\275p\267\006\275?]\226;L\201)<m\226\257<\273\025\334\274\224;\013\276E\014B\276\264\230\031\276\'\327o\275<\325/\273U\262\224<\257\016\310:\214\222`\272\025\336\346\274\231\331\304\275I\317\337\275\317\363\205\275n\224\315\273-F\341<@\207\377<\243x7;m{\236;\264\030$\274\225d/\275\342wN\275L-\220\274\365A\224<\357\373\027==\004\000=\335\377\'<Q\361W<\265s!<5\240\333\273\264\240\031\2745\207\356\272\377\317\217< @\334<Q\335\300<^\215\374\274\215\037\334\274MV\214\274\375\322\311\273\271\223\273<\325\014\317<GA/<\031\310\n<|\326\002\274\314g\030=#\352\216\273\\\260\234\273~A\252\274^\347\337<\271H\223<\213\327{<R\023\001<\310J\360<\001_\177\274\371\330\366;\'B\340\274\343\246\240\2749h\225<\325\346\224<[\311\007=T3>=\202_\235<\337\331(\274\246AL\274p\351`<8\324\210\273\210e\213<+F\314<)V9\274)\206\332\274\214\310\236\273cL\374<\304\213\227<\3575\210\273\236y\014\274\211\021Y=\326/8=TG\037=9\210\211;\300Xb;\210\364I\274?\277\026\273\364\350\010=\233\276\0179\261\326E=\313\266\247=\210\310\035=_M\025=\002`\224\274\323.E\274\312\343\330;LN\206;\245H+\271\000cy=!\033s=1\220\343<}\312\032=\216\007\215<\236\361\341\274\201\315\003\274\366O;;a\273\224;n<\206<\346zQ=\240!\271<\246\377*\273\360@\326\274>\372\263\274j\226\200:h\005:\274}\232\203\274[\207\002:\244m)=\335\004\005\274\345U\254\274\034\342\036\275Z\240\234\274\217G\227<\253V\264\274\001\271\027\274\265\014?;b\213\233\273,\033\021\275,\347E\275b\300\372\273\270\212\216\273d8>\275\240\372)<\251\325%\273\350oK\274k\246a\274\034\233E<\037\335\356\273\003Z\202<w\236\204:\332\221\274\273\334\313\007=\211\213\307;fB\031\275#7L<\216\0045\2757\371\212;\200;\302;\002\271\r\274\201\237\001<z\355\330;\212\221>\273V[\225\274\034\366\257\273q\016\345:\273\227*<\216C\347<U7\306<\330\240\014\275_\003\225<p\024\357\274\241\215&\275\037\357\034\274\3121y\273y*\235\273\214gH<\312\267h\274\244}\213\274M79\273\343\324v<\026\024\326\274\220\213\026\275\030)Z\275\342\014\303\274;\021%\274}\234\2639-\347\266\274\327k\r=\231c7\275\366u\210\274W\n=\273\214_\n\275\3643u\2751\274\373\274\006\204\266\274\027*/\275\274\373\016\275\246\033\210\2747\201 \275\233])\275\321[S\275\223t\t\275\335\260\235\273Y\n\261;\230\214z<\230\000\257\274b\306p;\032\217\310\274\261y#\275o\225\r<\371\001r\274d\241\305\274$\363\315\273f\370\210\274\214\250\007\275\034d\311\274\t\\\244<\234\340\233<\306:\322<\266\337\010=4\333\360\273_#\210\273\212J\267\274V\256\017\275%8(\275\000#8=|\367\321<\006]\254<\374\275]=\203r\032\274\364\324\250:\266\005\r\274\347\237\272\273\255\t\003\275d\221\221;\214[\320\274`.\353\274\223\n\245<q\371\204\274\372\366L\274\006\233S\274\243\261\371\274\351\363\216\275\333\364\203\275`\020\370\275!L\355\275\230\227\216\275t\347\215\275\276\201\010=z\024>=\371\032\205<\305\341\240\275.aI\275\036\004y\2755+\267\274%\220\206< \013\227\274#T\263<:\241\234<\342{\030\275g\245\r\2764X\256\275R\330\252\275C\262\010\273\300\300\246=^\3324\275\007+\261<\331A\001=)^ \275F\375\370\275S;\340\275\365\353\275\275\330\014`\274\374\2305=\333d\350\274\256h\021=\177\312\201=\301m\356<\271\001H\275\2735b\275\360\324>\2756f|8\251\344-=\365\0104<hX\204<\"1\357;\007CA\274*\261N\275\321\314\375\274C\370\216\275\374(\027\275\301\020\034<\"\216\022\275\367\341@<\325\265\274<\032a\205\274D\224r<\231\253\001\275A\241\317<\231\026\016<\345\316t\274\335\200\270<\267\3162<\027\333\001\275\025k\034<T\330\243\272\351ts<\221\217\220<3\235\201<\325\020\310<uh\017\274\200\311\036=O\0234\274\377\215\001\274\013\232\"<=Y\207\274\0244]<$[\325;Qa/\274\313H\203<~\030\275<6q\033:C).;\243\277\007\274\302\251-\271\356\342y<\307\320\035<\270\001/\273\250P\233<\023\014v\273Q\214;\274`\226\326\274aw^\275\236|\021\275/\267!\275\027\207\243\274d\013E\274\3619J\273\212\360\243\273\022\332\276<ori<\000\201H\274\030\010\177\2744Q\204;\261\214\241\273\234\017\003\275\372\\X;a\254\357<\274\030\253\273b\304\245;\021\000\236;3\313\017\275\216<j\274]x\227\275\337\233\'\275\337\333@\273\365g\001;(\244\310\2730&\210\274V\301J\274@&\235\274\337\304\002\275\007\3128\275\273\332;\274!\005\t;\242\300H\275LZ\307<EN\343<\360D7\274\010\002\003\275\025TY\274\363\264\t<!\203\201\274/\260\301\273\337-\016< \357a<g\250\245;4\3748=/\014\235\273\221B\010\274\326\357L\274\243\353*<X\360\250\273\325ta\274\370\364s<\357CE\275]\241\233;\000r\003=\251\217\242\273U\350\200\272\351\236\304;\370z\200;4\266X<\376b\013\274\323\r*=-\200#\275\231d\'\2757d\265<N\ty<K\212\351;\315\244\212\274\340!\323\274Zi\304\274~t\222\2747h\324;\355\242\"\274\365r\342<\250\355\035=\"}\301<\006\034\202\272.\205\240\274\251X\346;\353<\203<\277\325\255\274\306\325\254<R\365\374<\224\337\375<\264|E=\303\222b<\213\250\333\273\357\374\023=\262\354\001=\323\017\311<\236x9=\261\002\201=\377\\\031=v\370t=qOM=\013A\024\274M\005*=\303\251\037=\234\371\344<*\307\037=v\3330=\030\261\026=]_\211=\337\n\362\272I\372M<\267\363a<V\360\302;}l\270;F\206\334<\014\027 \274\226\254!=J\364!=B$\003=D\265F<\230b{<\353\240r<\337\216\362\273\300u\014<y\347\362<Q8\200\274\323\202^=\022\217\255\274O\3246\274!\241&\274\341\312\025\274Bt\352\273Z\214\007<F{\025\273\277\r\311\274\200\351\221\274\354K\325\274r\363\014\274Y\376B\274lc\265\270\227\243S;K\376\250<N1\027<\r\213\323\274\325\300\371\274\307&\r\275\264Vf\274\264%\272\272*\314\251;\3153\345<\360\312.=\2261\301<\001\207\004\274\231p\310\274_L\014\275\343,\250\274/\246\302\273I\032\263<\377}\211=\036(\274=\216\347\200=\362\037n<\221x\256\273I1\214\274w\342\356\273\345\264\217\273\233\033 =\377\266\242=\367\037\353=\242\233\213=l\363\2037\376\357\007\275K\r \275[z\211\274?9;\273\3370\t=/\204x=\243]\233=\251\034\336<\3169\014\275c\307\217\275\342\'a\275i\304Q\274\345\204e\274T\250Q9dZ\240<\364\303\212;\312\310\r\275\035\031\263\275C8\321\275\245{t\275\214\260+\273\321\354\312\274+\220\366\273[%\271\273\251oS\274\263\2223\275/\367\262\275\254@\270\275\2327>\275T\342\277\274\272\206\266\274\016\334\220\274U\302\006\274\275\022\272\274l1\267\274\302\234\036\275D\266$\275M\220\013\275\\\254\260\274\023\007\n\275\206\350g\273\365?\273\274UaO<$\214\221<\016\216G\273\371\353\246\273\354\256\255\274\361\'\333:Z\257V\275T#\036:\213\007\005<\"\215t<0i\207;(M/\274T\215\025\274\345\321\224\274l\335\371\274=N;\275\304\3558\275\223y\016\275\026[]\273Tz\241<\203l)<HUQ\274U\242\027<+\307>\274\025\322\375\274\207\306`\275\245\333\030\274d\312\250\2738`\300;\343\315\307\274\221vZ\275\331\2268\274\276\340\235<m\0179\274\001\366b\273\347\320\266<\355\331\'=\204\376\002=\026\332>=\247_\345<\312\350b\274y\202\221<\277<\275<\362\206\231<X\037\312<Hz>=q\213\221;\236\233v;\010*\363<\351\321\244<\217@\223\274\247\241\346\274s\231\343\274\351\376\257<\313X\326<\227i(=e7\220<\344=`\274\245\0261<\255GU\275\212\tT\274\377\213\220<\214:\272<\202\362\301<@\262\361<\311\331\024<OP\203<\225\337\213\274\257\010\017:aX\230\273\006[\221\274\332C\274\273\032\244%<p\366i\273vU\211<[b\200<\303\3511\274=\352\261<\377\320\302\273V\000\375\272\313UT\272\'\021g<\2725V<E\371a\274O\326\213\274:\323\243<l\360\315\273?\374\300\274\303!0<\344\325\257<V2D\273w\177\342\274\325P9\274\2371p\274\346\247\277\273\224\347\036<T\033\035\274\373\252\347;\013\277)\274\311\241\246<\232M\322\274\300\255\033\275\301a\222\273\357\225\315<\316\217d\274\300ZY;m\357`<\210\227d<Q\2024<l\323\331\274:O\315\274\333\031\217<\341\350G<\025 1\274\360\202\322;\366\243\031=\364PN\273\030\302\352<\3153\346;\357\301\310<L\030\262<\265K\264\273\233\271U<\337\211/\274\212I\352<\357~\341;\242\267\374<\224\267<=\300ba=\3207o=l\355\325<\360\355\252\274\273R\342\272AO\264<M\346\244;XZ\255;p?;=\002\337p=u\331\206=\001v\337<|U3<LF\331;\2562 ;\272\367z<(M-=\353\366\333<\322\355h=k\312\023<+\362|<\010\211\260\272\306\261\321\274I\362\332\272\027\352$:P6\261\274\316{\364;\255E\026<\325\205R\274k\335/=.M\303<\266_\204<\343\335A<\213\201\272<\220b\027\274\352GR<\253\354\n\273\336z\220<\006\230\204;\205o\216<\017\001\300<\352\217U=1=\240<\003\204O\274\3401\300\272!\204\217<\346\302\013\272G\213N<!\273\273<\"!\201<[\364\301:\337b\252;=$T\2751>\312\273b\221\212<\345:4=j)\236<\004?\244<\"\364^=\277\304\344<k&\206;fy\265\273*\000\036=}\024\027=\366#\004=\254\346\014<\306\rD;pI\375<\337D\307<\377fu<\347pi\272\273\"0<1\317\210=0,i<\272\324\246\273:\243F=\232\253\033;\336\037\317\274;\022\251<o\374\356;-\024y=\312\234z=A\220,=]\3764<t=\203<\277\344/=\360\333\232\273\375~[<Q3*=0\026R=\346\3568=R\207\025=\022U\234<f8\320<-D\201\273.H\3419\3103\031=F\213\345:Q\2131\274\3166E=]\243\271\274\241\0371;ou?<\205\221W<\364B!\273\350\000\302<\035*N\274g\347$\273H\226O\273\360\277\331\272W\035\021;\233\227\202;Z\2468:m\306\252\272:\014\263\274KL\206\274\304p\217<F\027p<\243,\265<\032Z\220\272m\330\010;\300\316\3049sH\262\274\r O\275\360\325\024\275\205\376*\274M\257\330<u\002\022=\030\305\232<g\006\305;\035\007\244;\250,\237\274\220 M\275 D\230\275\375Sr\275\343\343\277\274O\357i<\214\023\201<\267\rE;=]\023<q\027\200\273\354\203H\275\240\003\202\275\343\034\271\275\247\373\207\275gfe\274u5\203\273\263\310\204\273\324\313\267<\256Z\231<z}\006<\327&\370\274NT\233\275\210\032\210\275\240\177\351\274\214\332\032\273\266Q];\007\256\001=~E/=\346}\034=\244\230\006=y$\002\274\253\224\n\275\217\211\000\275\226\322\033\274\333\367\314;\333R\324<\001R5=\003\004F=^f\220=\024\343M=\232L\212<;\\\246:\232e\347:\225\215,<\004\261=<>\354\335<)/\034=\322\337i=\330+\206=\"hB=\000/\334<\257%\364;IM\215\272\032\024\262;\261\343\241;\017k\372:5\220\322<H\034\004=\351\362\254<,y\210<ZH><\270\342[=\342\245\007<-$\267\272\270s\267;W\213\016\270\210\364/\273\373\242`\271\010k\352\274\321;\231;A/\227\274\377e\224\274\037T\337\274k\210\231\274\031\302\233<\023\271\233\274\352_\t=7\030\257\274\034d];\206E\347\274qU\006\274\027\253\021\274~>\211<\254\331\247\274\377\271(\2750\177\374<\363\210G:\247K#\274\257W\320\274\202\026\300<\364\242\364;\035\270\307\274\262;\234\271\324~;\274\325\025M<^\322\302\274b\026\364;\010\300\245<\002\034 <gG\021;\377I#\275H\233\032\275\004\0242\275\312!\026\275\262c\322\274\213\201\'\275\344\037\024\275-\263>\275K\316\375<e\366$\275\002R\333\274%$\036\275B\021g\275\004\275\325\274w{\335\274%\250\334<\340=\222<\325S\206<\342\335+\275\260k;\274\325\3271\274U\260\013\275q85\274(H\201;\333W\271\273\354\270\367\273\016&\010<\001 \364\274\241W\264\274U\327\356;L\225\344\274\004\232\336\274h\222\357<O\rm;\347\241\t=\225\374\267\274\003\375\217;Ba\246\274\3547\024=\014P\036\274\227\323\020<\322O7\2746U\230\273{\320O\274\266\222N\274\nm|<\240]6=\226\323\254:t\341\263;\317j\356\274\373\234V<\036\035\342\270\351\t\273<\317\253\024\275\351n\273\273\377\305\364:\204\213\246;\314\212\366\273QuP<\346w\003;i\221&:Q\0133\2733\325\371<W\017\014<\354\310\273\273\205\327\241<~x\230\274\0302\037=\261\363\000=\023\201\312<\220\207\357\274;F\235:\266\010\262\274U\354\303<\314\204\335<\313\210E=\007k\211\272\227\274\257=\203k\347;\365\361N\273\007\271\032\275\361\274\366\274Q>S\275\302yI\275K\222\212\274h{P\275\330\246q\274e\252d\273\327\337\235;\362\341\267\274<k \274\017/\\<\210?:\274{\267K\275\205\324\021\275\256MD\273\333\r\300\273~&T\274@\226^;Adt\274\325\230#;Q\337\364\274\223\007\353\274\002\352?\275\267\227\357\274M*\371;\262\225\353\273\034)\204<\353C\260<\351[V\274\260\261\203\274?\260L<H\311\n\275\302\031\272\274\r\213\225\273(n\022\275\306y4=\206\223\2349\204\326\002\275T,l<r^ \2747\001\021=\350\275\n=\217\037\022<\370>\006\2755,q\274u\307\021\275|\224\337\2744\235=\273\200\"<\274\354z\254;\275d9\273\305\204\240\274\240\200f;\205\227\373\274\2152\276\274\200\252\301<W\372J\274\352\007h<\260\370\245<.\362(<\367\230\325\274\003\320P;\377G\237\273L\337b\275\273\207\342;\024I\261\272\361*:=0\241\237<\315\234\2478U\361\272;c\322\233:\"\'\200<\330Y\305\273UM\342<\263\013\014\274T*\240\274\375mi=\017?\023\274\316(\374\2740\036\351<\215\315\302\273[\310\006=\222S\215<n9\375<\251\275\3468+\340g=\232\327\212=\035\016\241\2744\277\213\274:+\031\275U\257\313\274\324\331\030<\334\341\244;\210[\342\274P,\250<\206\312\233;(\326\212<n\214\264\274\t\246q9=\234/\274\272\177\221<\307\375\232<eR\027\274\366i\260<5E\277\274\002\313\"\272@\223\307<\334\2460=\342\276{\274\350\342\036=\030\013\000<\262\331\272<\372\202\231<0Qp\274\031\\\001\275O=7\273\022\201\2429\031\274\030\275c\353V<\235\352\177\274\356\205(\275\237\316\207\274\376\200\326\274A\224\273;\273\206B\272\310/\260\274z0\311\274\315\253\240;0N\316\274\375\365\033;\372\247D<\002\302\\;\276\341\327\273\343\020 \274\210\347\217\274\312\013\267\274\204-\266\274\003\003\236\274\204\027\304\274\226\000\352\273 \206\260<\035\227\356\272\371\235\343:V\310\026\275\322~\232\273M\263$<\256\325\373\272\252y\242\274\375\005\350;H>\334\271\276V$\275|\026\247<\014\374\222\274\217u\373;\205A\300\274\351\\\206:\223C\236\273K@\024\275\311\217\213<\214\301\370\274\201\322\311:\254#{<6\000\207\274\241$w\27466m\275\376%\226:\240\014\032\275\250\006`;OL\235\2742\344C<\020\215\203<B_\000\275\270\037\310\273s\307\262\275\232\233\217\275\211m_\275\350B\203\274E\305\205<\322m\004=\273\321\272\274\356\020\351\274\321\220\206\274\330|C;:z-<K\r\377\274\324\327\354;\373\r:\2746\024\214\274\272\'\010=[\305:\272S?\304\273\315\031\364\274B\312M\274:\332d\275\220UB\275/\261\306\274n\014Z\274\365\002\223<\376\305\364\274u*\245\274\030\025\007\275\3153k\274\023at\273l\006\244:\243\321\353\274*\243\344<g\002\244<vf\245\274c\314\226\272MR\254\274k+\253<~e\317<\rr\342<\213\3278<\352\342J\273\304A*=\355\254\201\273\323\275\031\274\203\326\352\274`\330\376<s\007\230<#\010\371< \006\203<\334\232c=\306\242\201\274q\032\337<\330\233\362<\021\201C\275I[\337<\245Cd<\333k\037\273\001\354\235\274\317\343\255<\221\271E\274.\"\010\274\2538\274<\\t?<]>$=z]\227=m2K={\257N<\271\327\007<\251\037\277\274\345&}<\224\022C=\237`\326;\311^\227=\n\354\016=\333\301\201\274-g\013\274RE!;:\245h;\353\366\272:jL\020=\246\2227=\371T\223=\231-\006=\3747)<\304\206\014=\204\343\003=\241R\363<(\270\326<\317\016\224<\202\200\027=\230\311(=\350\217j:Zk\364<\350\300U:\205\234\030=\313I5<3KD=\205P\\<8l\023=\200g\376;\006\021\365<TK\217\274\336\253b\272Tw\243\272^5B< \210\254< \211\217<P\0237\273\020\2755=\373\261\300\273\363\277\214\274\021\272\303<#\351\020=Z^l\273\222\032*;vpj;\201\352\231\273s\031\363;\036\254\225<T\215\371\273\242\265\013=\337V\200<\347\326\200=\365\\\312<\256\312\005\274a\247,\274\227\353\230;a\231\240<\203\232\247<y0\200;]\220b<\273\264\327<q,@<\030s\026=\026\330:\273#\\\376:\326\036$<\303@<\273\276\266\276;\243\025\205<\312B?;\371\301\305\272o\231\324\274:]\036<\232V\201<\201-\251\274]\312\340;\356\214\215\274\377h\030\274\244\205r\274\333\003\366\274\2774\'\274\203\320\241\274\265{O\275\355\336\023\275R\004.\274KU\030\273\203c\024\275]\353B\275\200\005\217\274\024.\312\274h\014\257\274$\242\350\274\257\222\001\275\203\271W\275\024\364\240\274\036\322\320\272B~\225;\215\212T\274\265\204\023:\201Q=\275\214_[\275\347\374f\275\350\351$\275\361\263C<S]f\274Z\307\332\274\313\375@\274\261;\351\274\327I\216\274\354U\241\275\331\032\003\275\373\t\027\275\223\214\333\274\220\304\225\274\254u\003\274\255\"\005\275\376\266\017\273\310\301\302\2741#7\274\304\354\206\274\376\004\032\275\005\201\230\273\037\214\033;F\273\312;\376\t\006\274\315\270X\274\337e\252<)\213\177\274\333\304\222<\253\004\026\274\317P\207<\032\264\n\273G\313\317\273R\341Q\273\237:\251\272E\264\347;T\270\200\274\335\006\241<\272\335@\274\371{\355;\222\017\001<;\344\211;\250\365;<RP\301<h\355\026\273\361\253=\274I\346\231<\025\321p<\242t\273<\337p\261<\337\213\324<\211\226\212\274e\242>=y\007?\274!\227\310<\376z\326:[\270\200<\205R\232<P\333\017\274\361S\270<\377k\227<n\255\217<\360_C=\264~p<\31059=C\321\313\272\352o\231\274\271a\002\274t\303\367\273$\207v<\031\357\013=\222\250\377<\020xZ=d&\352<\360K\350\274\213{\303\273w>\3228!\3769\273{]\000=\346\263\201=\340\004Y=(\373\030=k&a=e~U<Cal;\240\211\251<1\253\016=>$8<\330-\327<\025\2378=`\321\347<\374\210\327<\225\024T=3\n\215\274\277m\177;Bu\310:b\352\324;\346;\202=\246j\240<\275c$=E\374(<\273T$<\322V\227<\324#\255<6\226\300\274\214\326{\274\250\206\212\274s\303\006<\301\372\353\274l-n\274\254F\210;\333\037\232\273\350\244\361<\225\035\310<\346i\343\274\025\2323\273\322X \275\020\257\321;\023\246\305<\207\351\t\275\003\352_9\344\255A;\ri\276\273\037\021\001=A\3726<l\tG=\371kx\274YN#<Q\022\272;\321\336$=0\316*<\363|d<\360R]=L\'\007=\204&\034=\234\031\203=\025\202\017<w\007\035\274\035\222\254;\323\221\255\274\217b\265\273\225\"\t=\272b\304<\271\026\021<\303\336+=Z&\374<b\260\325\274\223\320\201<\020v><\3764\001<\354\311\035=b\364e=;C\225=}\323\233=\020\260\010=:Z\001=\205N\270\272?\350\331;\265\025%=>=\2449:m\035=\250r8=\262|\002=m/\345<Gj\216;\013\'\213<\004\365\247<\210,Z=\005\216\243<\267\352\351<Bz\025=>[\202\272:\033!=Dq(<\3538\306<\252\271\017=$\031\027=\267\2051=D\307\362;\365\033\226<\36577;\276\267\375<\014v\031<\306\254\206<N\257P\274\350\336w\274\235\2210\274[o\217\274\225\232s\2742$\216<3N[;\215\343\316\273\314t\365<\347\t\225<\356\tG\273/\355\231<\353\275P<\375>\350:g\\\370\273\023\20769\213\313d\274\251\004\r<\225W!<+N{:\275}{\274\216\340\027\275\367\334\371\274\007\260\203\274\301\241&\2757\204C\274\315\320\211<\256\000#\273\255Zm\274\371\3710\274s>\330<\232\000H\275D\371\004=a\326\216<\264&\231;hGR<\376\356\204\274\272\357\234;NT\033\273\266U+=F\373 =b\231Q=\344h\252=iRc=\340!\327\274\027\212\027<\244\010\201<K&\312;\336\260\023\272\254=e=\374\343o=\036F\200=\343\367d<\274\377\273<\304\251\247\273\330A\200<\001\031\332<\307u\241\273\314 I;[\021\t=`\375\253<\304\252\020\274\261l\235;\201\031\200:\t4\256\273K\371\355\272\217\255\215;\2470.\274#5\257;\256\277\226</\372\310<t\263\356\274\037f*=`\r><8\257\261\274\200\325\007\274\375\021\316\271\365G\016\275a#\275<[\'\t=]\211\320;\232\226)<6.\014\274\254y\322\274\356\260\235\274R\034\206\274\002\321\004\273\346\357\361;\3108a<{\004\332;5\361\266\273>\320,\275\356<\211\275lYt\275\004\260.\275\374\257\013\274\201\023 <J9\212<gl\253\273\207\270\000\275V\006\253\275Mi\355\275\314;\264\275][^\275\227\353*\273n\212o<\010\261r<\000\260\316\274k\345\202\275S\350\350\275\311m\001\276\274~\223\275\222\224\005;\263\252#=\312T;=u~\304<E\313\334\274\334\234[\2757\317\264\275ULf\275\375\030\\=\342\036\004>\376\347\006>I\360\245=w]\364<\\;\315\274\310t\024\275G\260\r\275\343\211\300<{i$>\222\213N>f\370+>\202\342\261=\353\202\377<>\302\t\274S\236\2358\201\315\215<7\216\245=\366\3363>\037\233:>p\013\007>s+c=i\275\250;Ak\341;\217\372)<N\312\033=\014)\240=\213\206\364=\034$\337=F:Z=LS\221:\335\370\220\274\240\317\3328\310%\212;\037s\244<\317z4=\346If=\2612\030=d\340Q;\375}\252\274\320\241\241\274|\352\037\274-\327\030\275\320\347L\275\204\253\t\275a-X\275\"\205\206\275\341\303u\275IY)\275\004\374\316\274\353~>\275qU*\275$!1\275\234\017\312\272\354\336\031=s\2634;uy\004\275\341#\255\274\001\030=\274\031\263=\275\361k\327\274\331^D=\352=\014>9?8>~\272\013>lH*=6%\021<s\241\010<_5\222\2740\214\002=\271\1773> 9\232>\314h\233>H\316.>\310kZ=Kz\213;-0E;m\3314\275\005\006\202=Z1e>\223\263\226>\232\310\204>\371\211\004>%\027`<y\023H\274\200u\202;r\352[\275\226\244\241<LG\031>1\2124>\235\214\332=C\nK\273V\021\250\275\235(m\2751\235\253\274\2606\203\275%\230\320\274\005H;=\224\026\350<\277\205z\274\262q\255\2758n\343\275u!w\275\245\315\274\2736-B\275\311V\366\273\272\252\255<\315\374\222\273m\030\327\274)-\203\275Fwj\275\014\037\352\273\341%\242<\215\026\316\274\355\020\305\272\335\3170<O\215,\273\025\301\032\273W\351\233\274F\347\370\273E\356\252<\272\260\232<K\211\020<\213\203E\273#\256\220;e\312\214<+\017~<\037\220\n=\\\242\007=\017\324j<\343O\001\274\271\203\216\274\270\301\273:\344\211\026<\271\r\033=\373\024\222<\353\216 =C\347\303<\255z\233<J)\300\274\255\037\2447\302\024\241\274\203\t\333\273yn\347<\020\n\314\274\021q\270\267\371t\222\274\0032\372\274\034\373\303\274\315\201\027\275\207\267d\275\0148\003\275\023\365\277\274Z\031,\275\330\344\304\275\216\271\230\275y|d\275\244\337{\274\313\2663\274\253\030\001\275\370m\306\274\240,\026\275S\356%\275$\021m\275\337\215\254\275\377G\201\275\321;\203\274\272K\200\274Ge#\275\210\372\037\275\376\364\"\274\305ee\274\251\306\032\275\215\271U\275\241-\371\274\010\226T\274\320\n[;\310@\013\275\313\014\002\275b\200\252<A\312\375\2748\355\253\274\001P\236\274\217\354\024\275\332v\326\274\017f\243\274\036\225d\274\340a!\275\330\036\253\274\360 \203\274\325\031\347\274$\375\207\274\t\010C\275\252\260\000\275\336\022\177\274\000?Q\273\tl\375\2731\356\265\2745h\260\274H\234\"<\022\223\306;\032\037\001\274/~\220<,\177m\273s\330\256<\224\033\375\273\031\333D\272:$\315\273<-\357\273\307\244\333\273c0\332:\265\270\313;\211a\230\274[k\221<\301\261\217;\303\256\017<\007\246\331\274=E\217\274\375i\355\274G\237\251;\350\000\330\274\017\222\022\275B\302\342\273\303\323\016\273/\274\254<\337\351\366\274\345\314\310;\334\325\321<\271\336\257<\325\274=<5r\236\274\212J\025\275\031\332\315\274\376E&\274\237\010\002\275\230p\240;%q\370\273\027\023\311<\321F\016\272:\000!<\236?\005\275V\262\202\275\311Wo\275rN0\275\242\254\207\274\355\350\325<A\314\367\273\303uh<}\023\366\274\024\352/\274U\240y;Pv\032\275\371`\t\275\030\214\006\275\264y&\274\327\326+\272M\213\320<\210\366`<~\323\221<\217\315Q\274W\033F\275\r!&\275[s\212\274\370Wf\274ts\330\274\243\344\207<\335\250\253<\332?\233\274a\n\202\274\215\256\017<\225\014\310<\276l\027\275x\013\215\275\007}\345\274\253L\375<8\333\255<\002\303A<A\303\017<\355\230F=\n\027\236\2749\335\265;\220\233\375\274\327N\326\274\013\312\252<\245F\223\273\344\020\266\273\310v\365\273\203k\260<(h\201;\235\337\024\274\355[\230<&\303\004=X\247\243;!\034\232\274RG\210\274\366\013\244\274\367\340\371;\210\037\205\274\343\302[;\314\240\312<l\306\004=\033\237\035\274\341\344\272\272\r\201\322\274\320\322\206<(\220\025\274h\364s\273\325\245\360\274\010n\236\274\377\266\034=\210\220\017\272\265\243\342\274,\242\203\274\211\355\267;\033\240\235\274\270\026\005\275\276\315\336\273\322\221=<\215\372I=\342\023\\<\021\t2<s\005l\274\312\342\364\274\370c\203\274\361K;;\263\006\331<\t\315\242<g\214F<\035b\346\271\014k\245\274\2134:<\225\241\374\274[e\001<l\267i=\302CI\273Ip:=\001\007\016=b\267\355<\261n\025;\334&\355\273\253\224\334\272;\213\325<1\312c<*\031]<\217\313K=V\323\'=\005\372_\274uUC=\365]\020\274>\307\013:\266\325\014\274\274\017\301\272<\373D<\321\337\361;\302F\230\274\242\r\333\273\303\006K=\n/\372\274\371n\323\273]\357\220\274\357\211\307\274\215i\310\272\201\343\300\274\246J0\274\3577\t\275s\216\276<\321\232\026<\013\002\343\274\300\233E;\3474\240<\247\003\366\274\r\237\330\274\241\274\215<Gz\333\274\027\371\316\274\242\266\314<y\016g\2740\3145\275\236U\274;JmC\274\t$\031\274\245\323\277\274Fe\273\274L=\271\274\351\004\210\274!\241\226\273\245\260\237\274\r\225\205\274\014\021\336;\261\336\203\275\363A\237<*\347 \275\303\237\234;\335\0309\274\264\241\021<\002G\241\273\264\351\373;\361\031\231<\354\361t<\262,\"\274lr\023\274\340\255\273\274\253\345\034=1\376\243<\3023\214<\262Rt<\252\315\377;u\3029=\271\003@\274\n\303\305<\370_\240;\334<x\272\2032^\274_+s\273Q\177\271<I\342&=\242\337N;r\001\324<\022rh\274\350t\274<\027V\232\274\315w\200;5\3345\275\331\274\366<$\344\347<\217-\007;\244\333\353\273!\010\237<\324\304/\273,;\270\274\356}e\275\"l\255\274\355L\244<5\325\376;\340ih<&f-=a7\257;\372\010\030\274\t;;\274~\323\323\273\014\273\021\275\037\007\210;\271\003\327\273t\017\203<%b\325<\370\313R<\366\337\232\274\356\251\374\274Z\246\203\274\207\001$<\305\310\340<5p\021<\0138\320\274q\212%\275u\000\356\274\342\343\354\274/\371\247\274\271H\243<\314g\237=\010\007\264=\335@\036=\235u\365\274\3102\202\275\231V9\275\332,\010\274\257\321\005=\013\362\353=z J>\265kF>\254\366\263=\023e\026\275\273k\255\275\2173k\275\'\331\252<\332\322\303=&\254R>\302H\233>\310\312\214>\007\262\333=V\376O\275\240\356\333\275\010%\207\275\37247=\242k\347=\230\331\\>c\227\224>\321\320g>^\300T=\306\341\303\275\350\346\351\275P\316P\275\202\030\356<\\\022\205=\305\245\366={\362\036>\322\024\271=\20765\275\373\352\016\276\316<\006\276P\'q\275Uo\267\273\233\374\243\273\254y\014;$\375\034;Ph\035\275f~\324\275t\341\017\276-B\364\275\276Ue\275,\021\013\275<\304k\275\350\332\231\275}\263\231\275)<\217\275\272@\260\275\351\366\276\275\212\366\240\275s\236/\275\276\351\357\274X\351K\275\306\374\213\275IN\215\275\001z\"\275\327c$\275u\021(\275\231\035\033\275\354\215\336\274\260\347\325<\375\r\005\274c\260\272<\326\222\317;\371\006\225;\347\254\003\274\021.l\274\220\276\240<\322\246!\272\345\006\253<\004\351Z\274\207p\276\274\200\260\211;\004\366\220\274\342\331\304\274\204\220]\273(\177\020\274$\332x<\360\246\256;\031\372\334:\030K\275\272\017\231\270<\302J\230\273\366\3519;\277\"b\274\344A\023=\302L\230\274\363\215\037\274\320\345:\274M\354?\274_\027\375;s\252\311\274\007p\027\274]%!\274p\242\322\274\030{\274\274\255\016\024\274&E\027\275D\303\242\273- \005\275T\203\034\274\367I\257\274\327u\230\274.c\365\274V\265;\274\354\220k;\241\372\207<\025n\217\274\223W\014\275T\215|\275\214\021\244\274\211s\233\274\336\036\310\274\251$I\274\023H&9\314\376>\274\207\371\000;Ec\362;X#W\274Zn\004\275\357\235\312\2747\225\344\274\034\\i;%\212\001\275\2411\003\275\n\326\021::h\240\273\0259\321\274E\341\273\274\202GP\275x7\313\274\265K\276\274w\205K\274\001m&<.\177\033=\r\260O;3\360\261\274\214\377\034\275\033\233\035\273@O\264\274c\211\223\273\274#\365<\2215!<\213\315\354;-9\335<a~\355<\023#\264\273\3142s<\337UE<\213\376M\273\024ST<\231\317\350</X\215<jx\355<\025\254\273<\266@\203;\026H\227;\306\367`<\026\333\037<\233\256u;Y\236\366<\250).=\376i\242<\354\237\207;O\326\257<\"6\354\273\253\232.<~\357\331<\266\035\321<\311\013\376<\375v\237<L\334\211\272\247\023c\274S4\211;\311\032\330<d\217\245<T\037\347<E\366S\274e\005\227<\223\013\215;\341\023\265<VU\005\274qE\357<\025\274O;\332\373\270\274\213\256\177<\2465\370;~L\031\2736{}<\316\316\3479\\\365#=j8\357<\265%\2258C!\237\274\3464\321\272\351<|<\032\2166\273~\3204=<G\216=\316\235\276=\372h\234=J\345C=\337l\357:\204|\231\274\362\232\263\274\t\356[;\227y\250:\327\367g=IC\246=1\243\311=\305GP=\t\201\227<edq\274\202\030\242:5k\220\273\225\036\344;WNV;;C\032=|uq<\335b\233<\367\232\'\274\200\243\252;\004\027\274\273\276\317e\273\356}\017\2746Up\274\220\366\202<=\351o\274\220\177\203<\037\352f<\341\223\247<g\r\235\274=\377\224\274\004X\317;\306\366\242<\237\347Y</\236E;\020\r\003\274wk\316\274\023D\327\274\245\314\256\274&\026\n\275\tn\274\273/b\016=g\303\030=+\240\336<\346v*<\332$#<\323\017\315\273\037\277D\274\222\314\210\273Ka\024<\312M\337<\007\3056=.\204+=\364\3647;\313|;<04\220\274\362G\023<\376.F<\364c$=\305\215\261<\347\225\034=@\025n=\242\006(=\025\226S<\317\231><\262S#<\300\355\004;.J\340<\273|\256<\340\250\014=G{G=\000*i=\013\357\201=w\344E\2746\244\356<\246JC\274\267x\317\271\302\220\233:\321d\003=\271\253\362<\222\276!=Um\003=\016N\255<b$\362;\253j\230\273d\214\205\273\265\"\264\274\356<\016=\346\273\304\274\020Jb;hY\243<{z\003=\037\231\016\274\365Z\352\274\332T`\274\331\250\264;\255\244\016\275X\200\341\274\266!\317</\335-\275\tN\230<U\367\224;$\354\'\274\356\020\246\273pQA<Z\235\252<\313a\306\2723!\271\274\206\357\307\2742\025\263\272\271\032\245;9\350\274\274\367T-\274*[\322;~_\003\274F>\221<\247\337-\274E`\201\274\216\202\274;\364\360&;S\304\306\274)\362-\274$8\257;\312\252\n=[\230\206=\237\352M=\313\t\223<Ta\304\273\320h\213<\235\r)\275J\tg\274\367x\036\274 \304U=\311\220\223=\'\374\202=\010Z\017=<\235=;| 2:\262MN\274\371\2754\274\020I\271<[\363T=XJ\323=\251\r\234=7\006\343<\225\2244<\372\020J<\0046.;\201\261\200\274\236\220\227\274\2759:=\324\"\355<\'\205u=+\232\014=b\356y<\2136\254:m\0058<N\355k\272\357\231r\274bM\325\274`%\034\272\010\366\234;\n\313%=3\276\245<\325\3428\2747\225\274<\030\247\271;gM>\274di\314\2744\374\201\274B\343:\274@\252E<\211jE9\215EE:b\215F\273\266]\274;\240\214c<\3108l\274\022B\027\275\014h\352;\207\245\237\273}\376\216<\227\333\332\274\210B\225\274\227\014\202<\277\013M\274.\373\343\274\352\202\212\2747\025/\274^\276\205\274\030R(\273_A\267\274\357\264\001<\243ku\274s\t\275\2725 G;\274\333*\275\344v\350;\363\330\243\274\3367\005\275\214\016\017\274\036P\317:\227c:\273\344\032s<8\300\207<\302O`\273\266Cj\274FM\206\274\250\260\272\274\022E\004\275\206Q\235<\317\273\200\271v\022\025=\'j7=M\376\205=&\356I=2\264q\274l\370\002\275\227L=<\326\231G;\375\275\025\274\034\265\022\273n\321V=>\213`=C\022f=\305\243I=m\201\300\274\200zx\273qU\302\274@\241y\274\270\250\007=\370\326U<\342\377\232==t\355<\321\200\326<\314\337\351;\222\367\372;\333\233\274\274\331\034\231\273Z\324+\274\301\267\020=\036<\032<j\006y<\352Q\333\274~\233\221\273\244\237\330\273\226\221N\274\3329\265\274\266\006\253\273G8\r\274j\r\030\275\377\342o\274\037\332\351:\022\246\327;\372_\001;\037*k<x7\035<\367{\310\274\335\274r<M#\006=U\250\216\274\276\356\335<Y]\203<}\311\373\274\0328V\274\201\"\235\274\316\310\'=\020\260\346<F\322\361\274ri\245;\rE\232<W\325Z;\276\322\266\274\265\217H\274\310\202Y<@\323\026<O\323n\274\'t\325\274u\035\210\273\272\325\220\274\2542\244;U\242\250\274Y[\025=]0&\275\010qp;7\276\233\273\327\376\323\273_\333,\275\002\326\323\273\233\030\207\274\246\005\340<\371u\267\273\214B\326\273\014\014w<\253\373\257<\377\017\335\274\245\330_\2750\027\030\2754A\353;\362\207\243<\343\261?\274\232\214\215\274\271\327\034\273\203T2\274\276\251\264\273\254\016s\274\341\240\276\2744}U\275Nj\263\273\262\277\025;r\274B\275\270\260\031\274!:\267\273:\005\025\275\371\357\246\274\234e+\275\266 \032\275\2332v\274( \202\274\005\202\242\2746\200=\275}h\000\275\345@\355\274\303\230\262<w\306\260\273\022\265\330\273ww\"\273j\237\365\274\216\203\032:\226|\243\275\006\007s\272\022k\355\274F\347\352\274;<A\275\241`\232\274\262R\202;T\217\275\273\275.\225\274\362\240h\274\356JN\274!\205;\273\023gl<I\262\205\274iBi;\372/\265\274a\271z<\025!\324\274\246g\265\274\265>\205\273[\010\322< \356\324;\220R\212<4\026\013\275\321`\003<\303\023\031\274\341\002\254\274\336\305\246\273(\271\351\274Bh\360\273T}\252\274\216\334\236\274\223\001\'<v\022\246\273\260\006\353\274\340\262\376\273N\317\031\275q;D<t\355\035\275\177\361\304\274c\020\367\273\304T\376;W\036n\274\374\245\265<\322\003$<>\002H<\376\273\253<\016\254\252<5ov<\325GO\275\304}\240;\0232\263;j\r\006\275\265\217q\274@\247)\274\233!\027\275\233n2\275\364k\345\274\351nY\275T\234\362\273\371\354\342\273:BS\270\367P\317\272\356\235X\275\305\360\234;\234 \002\275~u\033\275\260\216\027\275 \004<\274\t\265)\275\331\022*<E\324\303\273\225m\022\275\312u\326\274\347p-\275HB\025\275\243>\013<\0058\222<V+8\274\t~\006\275\332y\023\275\301\363w\273\215j\273\273\'\303b\275e8&\274\343\375\307\274#\316\313<\263\321\342<\242\360\317\274=\375?\274k\007A\274\205\031\014=4\340\205\274\'\321\303\274\36631\275o\351\235\274\223n[;<\206\024:6\234\273\274\230vk<}\264\323\274\341\023\2179\2238\037=}%<=\323\315\314<D&\t=\322PG<)\237\245<a\224\214<\207~\356;%I\010;(]\355<\247y\211<.\376]<\250\377F83$\275<q%x\274\303\365\266\272\232U\030\275\3263<\274!\360\307;\3469-\274\361\322\256\273\342\225L=\216\036\231<&\300&=\357G\013=\302\227\007\274o\003)\275\245?\214\2746\007\303<\304\365\260\274\270\304\374;q\272\252\274?\251\251\274i\t4<S\212\276\274q\273\261\275\256nP\275\216\301a\275\332i\345\274^\350\374\274\324Z0\274$o\365\274\207[\277\274\036\232\211\274\004s\014\275\207\330D\275\344\310\007\275\353\210\020;\214U\353;\326\2171\273\306\316F\274\202r!\274\207t\t:6\230\246<,\033\216\274\242\033\264\274\341\312\034<\236\304\201:\252f\364\274S\251\004\275\370#\013\275\336\3059;WT\2378\232\'\\\273\311V\001\275\267L\233\273\325\346\246:h\014\342\273^\352\247\274\353\305\'\274\2053\014\275\025\305\336\272\201\035\235<\254Z\204\274\004\347\356\273"
      }
    }
  }
}
node {
  name: "Const_11"
  op: "Const"
  attr {
    key: "dtype"
    value {
      type: DT_FLOAT
    }
  }
  attr {
    key: "value"
    value {
      tensor {
        dtype: DT_FLOAT
        tensor_shape {
          dim {
            size: 12
          }
        }
        tensor_content: "\236\310\362\275\241\026\230<\006h/\275\374V\200=\205?\214<\247K\333\275\347\354\233<\325\372 \2758@k<\372\3357\275\247^\352;\334\327\000>"
      }
    }
  }
}
node {
  name: "Const_12"
  op: "Const"
  attr {
    key: "dtype"
    value {
      type: DT_FLOAT
    }
  }
  attr {
    key: "value"
    value {
      tensor {
        dtype: DT_FLOAT
        tensor_shape {
          dim {
            size: 12
          }
          dim {
            size: 56
          }
          dim {
            size: 1
          }
          dim {
            size: 1
          }
        }
        tensor_content: "-\374\007\276R\016\305\273\240.I?0\337\200>oP\022\275%-\017>\225\277\220>\237\220\335<\326\247\200=\017\325\344\2756\024\376=+\2062<s\305\032\276\245\371\t>\004\367\013=\"\211+>\353\241;=\010\025m\276((\014>\277{\331\273\354\006\026\275\250\247\227=\214G\036\276\256B1>\250^\031>*\251\316\276\312\310\t\276L\t\312=\257 \360\273\257\225\200\27694\026\276.,3<:\267\315=\232(\016\277\274\336\266=6\357\022>\232\017\210=C\327;\276\000\351V\276A\335\242\275\253Z.=\373\272\000>\312K\275\276yt\377\2753\032.;\313\206\206<\343<;>\177c\263\276\rh\227\273\220\317e\276\244\251_=o\326*\276\215%\204<\214\375\r>8\016\r\275\371\2412=\350S\232\275O6\335<yG\212=\3509\003>u\370\205;\213\212\030=fn\013>U,#\275\300\'\210=]jK=\277f?=\324=\256<\340D\024\274\025\232\244=\20490<\323\"&=b\263X\275\225>)=\325\000\211=c\374\177\270\036\rl\274*-\270\275\314].\275U\246\032>\033\377Q=\364\3468\276\036$\256\274\240\264\346=B\374#\273\343\203\352\275\335:x\275m\374F\275t\226\256<\347!K\276!T\n\275\371_\001=\223\243\027\275\004D6\275\220\222\313\273\344\207\317\274Y\232\305\274\245-\252\275Gb\274\275\010\022\230\275\255\301\223<\365\001O=\007v~=\304W=\275<Yr\274\213\351\024\274)\274\332<\0041\323;\365\222\311\274\321\025\323=\200\331Q\273\214~2\274\342-\373<U|N=\333\201u\276\357\373\t\276_\221\204\275\013=Y\274\037\002\003\276#\205t\275\223\331\216<\255\207\252=\321p\001\275\260\371/=~S\233=|\205Q\275\312s?\275\203\341\037\276o\014\310=\264\013\200=\216\266/\275\247Au=P./\275\302l\305=c\365\377=|\233\322\275F*\227>\313cL>\224u\313=\206\231\010\276JK\330\274\320\244[>\336\325\311=\215\263\354=\372\242\233\275\277\237`>$\025(\275P=I\275\010\206\321\274\252\365\262\273\312\206\347=\354\001\201=W\236\205\275\367\311\n>\035\203p>\025\336\241<\001,\247=\262\307c=5n\r\276\227\317\036>\226\310\242=\346\374\372=\027~\201=\035\247\233=R\2234\275&\304R\275\215\351P=\356\031\261\275*,\254\275V\277(=c\004\377=W]\022>\360\214\363<)\232\351=\002\274.>\203i\233\275pk\275=P\\\323<\235\251\356=S\203\245=\257\317K\275\306r\006>\3724@\275\331Z\364=\362n.\276|\361\\\275\333\355\316=\307\230\032=:\201\361\273i\031\224\276\307\343]\275\2059\014>\334E\243\2761\272(\276\306\033\026\275Vg\261=\357\317k\275a\274\221\276\017\254H\275\251g<\276\217!\026=\262\0373\276\201T\246<\263\001\252=xx\031\276\210&\'\275d\205\214\275\223\266\270<\035D\003\274?\323\033\276\262\"\024\276\216\241\276\275a\216\241\273\274\317\206=5^\213=X\005\261\275\223\223\026\275\231\'b\274\337<\003=e\213\313<o\236O\275= ;=\337\360u<\277\345\237\274,\325\033<\352L\227=\276;\204\276Gd\010\276\236\2360\275\355\207\375;E\314\337\275P\330\202\275\231\032\345<\370\342\343<j>\236;\000\364[=7\235n=2\rL\273\3203I\275iV&\276\001\002t=\233;\213=\023\272,\275\021\364\231=\231\303r\275\215&r<\357\342\332=\360\370\024\276_\250\370=\333\241;>7\321\304=5{ \276\343\325f\275\010\375\017>%)\336=T\243\315=_\020\344\275k\202m>y\310&\275yf\337\272(o\321\274\0264<\274\251#\367=u\027\254=\261e\230\275\0351\200=\267\337\010>\371\306\023=\213\001\244<q\210\233<\312\2056\276E\t\364=\333c\255=K\232\025>\317\3107=\256\340\305=\257\251p\2745S\000\272\007g@=\331V\361\2740\225\376<KI\217=MQ\013\276\004c\025\276|\201(\275&&)\274\035\345\004\276\321A\235\274\312\334\251;\345D\204\273=\214\266\274\312K\322<\311V\204<e\250\204\275\245\302\375\274lD\355\275jf\036>B\234\276=\364\274k\275^\242i<\003\215A\275s\370\027>\236\351\236=\0329\022\276\326\245u>\342`W>\376\227\260=\341e\334\275\010O?\275\344\352\202>\311\331\346=;\352\361=%\270\307\275\314\263\177>\213\276\035\275A\375\323;\314E\203<\317\005I\273\351$\263=[\035\373<_\366\230\274\232h\016>\365\"\243=e\363\222=\371\351\215=\250@`=\003O\251\275\203n&=y\324f=^\234\264=\255\207\301<\226\273\"=\251\356\372\274E\035\204\275\350\033\023=n\360G\275\352\335\223=\311\'W=\312\224g\276U1\347\275\337i\271\275\213i\233\2753\204\312\275\202$\013\275\254\242<\275\031p\270=\245\322\254\275\336BN\273\026\030\320=\0323\222\275~\302u\274\310L\026\276N\303\364=U\373\023>\207\302\236\274\230\262\232\2732\246\332\275\025\322\373<i\354\003>\t\350\205\275\225\2234?\223\315\013>P\277l=\215$\270\275\340\r\272\274Ook>\321n\355=\354\0076>\310m\235\275\032QS>\373!\255\275\000M\343\275\313\357c=T,\241=\343(!>\341\037\313=D\232\360\275>/T>l\340w>\3122r<(d\244=\212\302R=\017\017\341\275t\313\034>gGT=\204B0>\'U\020=\034\303\270=\000\347\254\275d\303N\275a\'\325<hh\311\275\277\333\223<\233q\207=\233\263\215\276iL(\276\365\343\225\275*\013.\274\307\217\355\275\347\024\332\274\375\210\010\275J\357\275=\3117\026\275\355\001\202=\362-\300=T\247\264\275\3171\006\275\265\tP\276\235\2241>:\356\">.\2778\275T\032<=\323\347\314\275O:\266=\344\361\346=\261\211\014\276\351\336\026?\345\323G>\225\002\035>m\267\257\275\245S@\275\275\325\226>\002\251\316=\017\326\036>\345&\014\276\214!l>Qqz\275@\256(\275h}J:\267\r\377\274\316\3402>\346D\304=\231\215\t\2764iH>\214\235b>[\225(=x\205\335=+\0100=a\016(\276\237\3235>\2567\277=\217=\034>\221?\222=\014\343\305=b\273\237\275\343\005#\275\375\263.=\000n\273\275\372l_=ey}=\273\rp\276\350\341\342\275,#5\275\320\335d\274\376\016\032\2762\345&\275\003N\210;\211Y==\223\033\021=S\022+=<}x=s\323\023\275%\247\300\2754\"\033\276\331\262\236=\336o\035=\247\033I\275T\211\213=\270\353\222\274\352\\\020\274W\373\006>\263\t\373\275E\367\332=\226)\207>\247\332\310=\024\313\n\276\005\341U\274=x\t>}!\014>\224Q\275=\214\307\367\275\267\254k>\312\003\232\274\277v1\275\250a\203\274\312\212w;\204\237\">3\336\254=\213\344\202\275\364\003\270=\337\205\034>\014\027\024=\322\200\315<\344\361G=\256\315\030\276-\315\367=j\252\262=+x\023>(\211\363<g\246\262=-\346!\275\244\244q\275X\341\206=\026\033\237\274EsA=\274)L=\227\027{\276\212X\352\275\005\003{\275\275\327W<:|\266\275{\235\021\275\214\256\224<\327\372\245=\236\2072<\260 \214<Z\005\211=\236\251\237\275k\372T\275\230\230\312\275\354n+>\3779\355=\253V>\275\2453\267<qu\223\275\371\363\002>Xs\234=\2050\255\275\351\306\355>%\322~>mJ\247=\225\022\323\275\001\020q<\014\305\232>\276+\000>\304\3700>\340^\354\275P\242\211>\010\320@\275\014s\010\275`\275\223\273\'\270\215\273\222I\306=F\016\277=\026\224\322\275Lj+>\n\242<>u.\210=\221\276C=1\373b=\024\351\004\276\261\227\003>>\206\212=\323\034\257=\014\023M=\343 \253=\237\016z\275U\220\242\275\225\027\312<\022O\220\275\371Y\252\275\2168U;\\!\217>xY\014>\032\336\200\274c5f=\243m\t>\316\246\203<\315\222\236<\300\346>\273O`1\273\004%\254:\000T\304;J1b=a\261\200\274q\n\307=&% \275\257\375\212<\355\330\212=V\214X\273%)\203\274%\305\007\275\230\360\333\275x\360\037>\303\250#>6z\243\275~BO\275\n<\026>\032lU\275\204\n \276\005\336\245\275^\227Z\275d\033\232=`7\027\276\3434\037\275\340\002\351<;\327\306<\336\356\235\275}f\313\275\206\360\r\275Ym\271\274\350\200\323\273\206\000\213\275\004v\223\275\222\311\241<N\177\006\274m\177\317=\224\234\202\275\372\360\357\272\270\253\244\275\023\273\255<B\352&\275j\034\n\274\354f\005>\000w\262<W\017K<K6C=\014\312\250=\301Ze\276\366\023\000\2764\377&\275\320w\023\275B\236j\276fo\002\275\230m-\275&\271\231=\035U\342\274\213\266\037=\356\310\305=\246\265\314\275\340%:\275@x\001\276\250\233{<V\275\312=|\364U\275\337O\243=N\333(\275t$P\275]E\265=\211L\025\276Zt\350>\023)\006>\230\306\245=\260\026\013\276-\305\247\275\207\235?>Y9\260=\210\350\303=-\014\234\2755\265X>U\344Y\275\222\346\344\275\256}\261\274eR*<\313A\340=\275\020p=\214\251\332\275\025\243L<O@X>T\020\"=\027\324\277=\213\022\350<\014\321\375\275V\0213>\030nK=\245\370\361=\243\266\350<?s\264=\235\027\204\275\032\375\005\276\253\270\225=\327:\250\275"
      }
    }
  }
}
node {
  name: "Const_13"
  op: "Const"
  attr {
    key: "dtype"
    value {
      type: DT_FLOAT
    }
  }
  attr {
    key: "value"
    value {
      tensor {
        dtype: DT_FLOAT
        tensor_shape {
          dim {
            size: 56
          }
        }
        tensor_content: "\204t\217\276\231\364\204>\264\337+>\021f\305=\262!\215=\330w\325;s\\\265\275\n\260\262<bY\346\275\375\3253>\207\177\344\274\3074\241\2743\331k\276\\\2223\276\372,\261=\\ \377\274\371p\032>\301\"4\276\252K!>\330\310c=\246\333\000=e\222v\275X\312\r>\317\357\300\275\306@\005\274E\302\215\276W\264\316=\354\322\332\273\274\264\202>\237\244\016>\t\354\232\274.\235\'>GW\013\276B\371 \2762\211C>\240\365\227\274y\000\304=\326{r\276\203\260\202=\350\315Q=lU\220=\360Y{<\336\263\303\275Q\275\016\276p\026v\276*W\033>\352\317\202>\325r\222\2746\211\335\275I\213G\273\343\202\004>fl\032=e\013a\274\021R\247\275\001V\344\2741\177K\276"
      }
    }
  }
}
node {
  name: "Const_14"
  op: "Const"
  attr {
    key: "dtype"
    value {
      type: DT_FLOAT
    }
  }
  attr {
    key: "value"
    value {
      tensor {
        dtype: DT_FLOAT
        tensor_shape {
          dim {
            size: 56
          }
          dim {
            size: 12
          }
          dim {
            size: 1
          }
          dim {
            size: 1
          }
        }
        tensor_content: "W\2349\275\333%N\275\265?\237\275\373\244\254;\314]\224\275\226o\007\275&:\033=\032H\200<\337e\002\275\373\3263:\211\302\252\274\022\223\246<\233iV<G\031\005\275f\343\205:@}\326\275\347R[\2741R~\274}\0079:\200o\226\274\240\'\'<W\217S\2740}\242\271\374<\256\272\202\327\027\274DlF\273\230\364\020\275~\271\314;\0059/\274a\010\030=!;\204\275\216>\325\274\357\303\025=\336\275\371=y\'B=\226\362\364<\311\320\221;\345\265G\275\224!\237=exW\275\222G\267\275\227\210O;X3\310\274\232\204\327\273\346\007\r\274\367|\234<\375\336\350<\352Z\236=m\220\363;\227\245\237=\243\207\024=\336\020\240=\263\234\023\275:\221\300=\202\230\342\274T\"\251\275\331\360.\275\231IG\274\001s\354<\200\314\355<\323\005.<\375\177\224\273\003]\315=\371X\004=\321\272,<\035\212\317;\177\275)<\034\325\227\273A\377\236;\034\002\005==\177=;i\336\216\274a\010\036=\330t\207\275*\3708>\\y\260\275\355K\036\275\277\034\014\274\317\263\024=\335\013(<\245\004l<\006\001r<\333\323\266<\2575\267:c\240Q\275\377]M<\037>\215<\357\377\213\274\000\3566\276\207\353\301\274\307\356\203=\224Z3=\326\006\037\275_i>\274\3271\234\275\362\361\030\273V0u\275a\211\004\275\371\272r\274\247\337\240=\253};\275Gw\243\274\017\301\266\273\242\350\350<g]\t\275\r\022\377\274.\200\014\275l->\275\316\365\024\274\232\356\266<\357\360\356=Z\205!=u\014\336=\312\341\014\274\207\252\213\272q\266S\274O\365+<[t\377\274\253\203\213\274\244k\020<Q\014N=\340aH\276b\343\003?0\230 \276\215c\030\275\255g\026\276\340\206W=L4\216=C\222A<+\243{\275\016\244-\275\016\267=<\317\215I=\2756\325\274\254\211\363\275\302\275\004>7\230\332\274\201\225\333\275\355*B=\033-\t<\316\n_\274\356\005\234\275\332\203\372\275\007F,\275\276\213\023\275XP\366=\333\026W\274\210\256\217>\35519=\323\314\023\276\214h\274<\276\223\220;\t\244\337\274\005\233\216\275;U \275\031\r\221\275JR\275\275\032~\365<K\271t\275\310p>\275E\243\253\274[6y\273\tjH=\274\360\321\273Ym\247\275[u,\275JX\245\275\033\377\244\275\251E\324\274\370p\200;\240\203\235\275%\226\331\273d\371\271\275L\275\030=\225\222\034=S,\301\274\364\\>< t\376<\222B\010\275\363\262\004=\372I\036<\276J\361\275\241O\343=\240\335\335\274\3512\344<\300\321\344\274\207\025\261\274\366\322l=\n\233\326\272;rw;\250S\243<tzI=\254}\242\274x\206\272;\260\341O<\024\350\310=v\006k=\017u\227\273\314\353\256<R\0048\275\244%\323:+\266*<\005g\211<$\"3\273\252\343D\274+\330\235=\377\231\325\275h\231\022=U[\007=\215\264\217\275G\314q=|&\262;B\356\345\274+y\261\275\234zG\275&\2155\275\037\217\002=\3617\237\274\323\246\231=\247\220\237\275\343BR<v\262\004=\223\302B\275\023\351\371\274\265\364?=\316\366\271;\350v\254<J\277(=%w\337<\271X\204<\337r\362=\214\266\314\275\236g\241\274\267)\003=\207\234\304\274*\221\010\275\264\257\364<K=\000\275\336\346\027<\020\3718=\217\302\275\273H\207;\273\327\177\324=z^\261<0\264\036=p\343\241<\233\2729\275\315\004\013\275T\366>\273\346_\223<t\250\\=\022\006\361<\362D\020\276wp`\275\"\355i\276\010\227\360<|\244-\276\000DM\276\345\037\215=\215\267\315=0\270\220>\347\217P=\325\001\026>\271\311M=\002\272\245=D\374@\274\r\346\246=r\t\n\2768\275\263\274/\223\034=tG>\275j\301>\275p\277y=\335\322\370;r\277\013=g\233\007=L\016\036\275+\020\312;a\226\251\275V\007\007\274\243\323\366\274\212\3462<\024<j<m\262\265\273\246)\277\274\340.\036\275-\253\206\275\334\362\t\275c\035\333\271\232\217\274\274\001=H<t%\373=\3255t\274\tk\351\274\231\003\023>\342rE=\202X\246\275o\267\244<\240\234x=aY\260\275\006\304\005\275\014~\217\274#Q.\276\210]\334\275\224\211\247\275\226\355\363\274v\0141=\233\230\307<\305\342\002\275\371\005d\274\033\345\311\274\260\267C\274\267#F=z\017\322\274\337B\201\273\361\314\001\275\212\364\"=\331\235\322<\335,\325\274\304\212\\\275P`]=\242\223\275=\031\247R=\331\252\333<\031\312\271=\324\370\335\273:&\324\274Q\216\217>\336\256\225<\262\337\347\275qd>=X\313\026<\033\2365=\343\357\314\275\335_\242\276\326\002\375\274O\256\265<\003\0019;\032}4<o\265t\275\243\3560\275z\213o\274\272|Q\275\020\320\344\273\035\3735=\361\356\020=\240\354[\274\003,\252\273\255:\333<^\377!=\371\354\375=P\251+=\305\262\223=\333*m<\343_\214\275\251\205O\275Z\372\010=\247\023T<<6k=s@\324\273\246\270\301<\214;d<\206`\231=\266\365\326\275\341^\275=\346\230\010=9R\304\274\201\332\016\275\007\036\200\274\327\311O<\213\036B=\005\022\263;\250\256\341<\345\302\212\275&\330\202>\014\305\206<\332\254\257\275\220M\251;N\031\025\275\340U\036\275!\252\257:\006\2148\275\235\312\206\273\345\\\231=\354@^\275\365\234\352;\262+\227\275\327\375i=\227\355J\275\357X\365\2749\017\340<R\274\356\273\020\200\265\274\014\370\010\275%<\262;-\370\251<\300\3538\275\362;\245<\207\371\353\275\261\272\231\274\364\271\035\275\321C\030=;\256\023=\272\321\023\272oR\331\274\375\0213\275\006~>\275$\361+=\023\273\202\274\036\263?=\355c\332\275\006\212D\275\246\n\024=\007[C<S\241<;;En\275\357\362r<\322\024\353;\200*-=b\301\366<\330E1\275\226y \275 \270\035\276\177\'2=\360\323\332\274$\263\201:&e6<\307\355}\273\317\233\303\274\024q\317\274\213\231p<\252\305\236;\207\\\352<|\'\370;7Fm\274\226\177\263\275\223\227\013>\262xK=\327\3332\2749\300\213\275\311\241\225<\020!a=NN\205=\346o\232;\363\2017\274\031\3527<\212\220\251\2752\013N=\002\363\245<Ng\301\274\254\305\025>\035\276\255;\276\355\t\275\353\r\356\275=\006\226\275P\216\032\2756\347\"=\2747l=\035\271\375;\3776\217\273eR\253=un+=\271zH\275\205&g\275\326\313^=\355\376\354<\234\367\346<\224\320;=\2102\017=]\335\315\274\330\220\362\272H21\2759o\205=i\342\325<]q\255\274B.\252\274\016\247\246<\217\024\025=\211\204\217=A\335!=p\236H=\367\204\340\2744\337s=\233q\254\275T*Z=\r\200;<\372\2026\275h\034\316\274\303\214\206\274Jf4=\257\335n=L\376\321\274\013q3\275:\016\"<\305g^\275\365e\232=\003\254\274\275\370\365\201<s\316\030=\317\356\016>\264\266\344\273c\333#=\263<\260\275+\211\212<\225\224\217\274gkz\276[\314\367=r\234\300\276\013\346Z>,o\344<\305\271\003=L\312\347\275\375O\271\275\331vu\275\033<\237\275\270\365W=K\314\024\275.\214\004<r_\357<nQ\225\275#Y<\275\300O,\275\221\321X=\264q\010>\374\316`\274\334\005\225<\344\366\001\275\nw\263\275<;\213\275\361!\224=\253\237\366\275\323\362D\276\330\220\354\274\021\177\307<ui\037\274#\312\205\274Kv\'\274^\254N=4\300\237\274\023]\022\275q\361\360<\277\334\010\275Q\304$=\323#\376\275]\304L=\300\2562;8\222\245\273\314\272?\275\366\374\271<B\267\373<\r\222U<\212\032g\274{5\215<\306]\204=\210\237\350=e/\201\274\347t\250\274d\230\275;\262\321e\275]\224\231:\321\330\324<\n\237\341\273\310\312\3429wV\223<\004\3524\275{\255\264\276j\226\013\275H\360\331=\363\301\024\276@3\253\275\310\366\021=\364\014\r>\356\266\232\275\226\305\025=\030\216\3229\017\210\256=&d/\275R\216\304\274\220\205\260\2756\217G\275\210\332\251\274\030}3<\273@\317<\251\227\214<\313e\026\2743\260^;\315\023\t=k~G\275<\236\025<\026?\035<\300\370\000>%\r\016<\307\266_=alX=dn\036\275\241|\201\275\036\304\255<\254\324\023\275h\337y;\201\036\204=\016\233\202=\344<\275\275a\226\354<\353_\233\275\355\247\243<\036\242\230\273\210\344\007\274\235\227\352\273\224$\375<\370\"\355<z\315\001<\3660\271<\200\235\357<8\332f\275\017\266^>\2617\234\276\201\306\237=1_!\274\376L\203\275\241\317\215<\241\236\221:\200\371K=\223\r\240=\323CK\273\316\244\236\2734]\220\274g\357>>b\306\032\276\341\2366=0\271\030=.O\303\273\201\244\004;\373\304\273<\3437+<,\024\312<\267Z6\274\366\033c\275\376\361\232<\263\264;>cc\247\274\354\330C\275\303X\"\275\345\3055<)\303\340<*5D\273\266\376\224\275\232\306\215\274@\322#\275R[@\275\2330\020\275;]K;\366\"\217\274\365s@\275\226\373E\275\335\210\352\273\242\3623=\013\250C\275z0f\275b\326\376\273\366+b;|\231(\275)\037\300<\347\236\261>U\227\307=\214\027\220<L\236&<\222\212\203=hJs\274f\205V\274M)\240\275\227\'n\274\233\020\311\273"
      }
    }
  }
}
node {
  name: "Const_15"
  op: "Const"
  attr {
    key: "dtype"
    value {
      type: DT_FLOAT
    }
  }
  attr {
    key: "value"
    value {
      tensor {
        dtype: DT_FLOAT
        tensor_shape {
          dim {
            size: 12
          }
        }
        tensor_content: "JW#\275&\301\220<7\303\307<\361\233\252\274@\244f=\240\215g=\342\351E=l\304K\275\224\t\313<\305\343\306\274\246\330\306=\317d\320="
      }
    }
  }
}
node {
  name: "Const_16"
  op: "Const"
  attr {
    key: "dtype"
    value {
      type: DT_FLOAT
    }
  }
  attr {
    key: "value"
    value {
      tensor {
        dtype: DT_FLOAT
        tensor_shape {
          dim {
            size: 12
          }
          dim {
            size: 12
          }
          dim {
            size: 3
          }
          dim {
            size: 3
          }
        }
